<pad>	0
<unk>	0
<s>	0
</s>	0
<mask>	0
<sep>	0
<fim_prefix>	0
<fim_suffix>	0
<fim_middle>	0
<lm>	0
<infill>	0
<translit>	0
<restore>	0
<codeswitch>	0
<ur>	0
<rom>	0
<0x00>	0
<0x01>	0
<0x02>	0
<0x03>	0
<0x04>	0
<0x05>	0
<0x06>	0
<0x07>	0
<0x08>	0
<0x09>	0
<0x0A>	0
<0x0B>	0
<0x0C>	0
<0x0D>	0
<0x0E>	0
<0x0F>	0
<0x10>	0
<0x11>	0
<0x12>	0
<0x13>	0
<0x14>	0
<0x15>	0
<0x16>	0
<0x17>	0
<0x18>	0
<0x19>	0
<0x1A>	0
<0x1B>	0
<0x1C>	0
<0x1D>	0
<0x1E>	0
<0x1F>	0
<0x20>	0
<0x21>	0
<0x22>	0
<0x23>	0
<0x24>	0
<0x25>	0
<0x26>	0
<0x27>	0
<0x28>	0
<0x29>	0
<0x2A>	0
<0x2B>	0
<0x2C>	0
<0x2D>	0
<0x2E>	0
<0x2F>	0
<0x30>	0
<0x31>	0
<0x32>	0
<0x33>	0
<0x34>	0
<0x35>	0
<0x36>	0
<0x37>	0
<0x38>	0
<0x39>	0
<0x3A>	0
<0x3B>	0
<0x3C>	0
<0x3D>	0
<0x3E>	0
<0x3F>	0
<0x40>	0
<0x41>	0
<0x42>	0
<0x43>	0
<0x44>	0
<0x45>	0
<0x46>	0
<0x47>	0
<0x48>	0
<0x49>	0
<0x4A>	0
<0x4B>	0
<0x4C>	0
<0x4D>	0
<0x4E>	0
<0x4F>	0
<0x50>	0
<0x51>	0
<0x52>	0
<0x53>	0
<0x54>	0
<0x55>	0
<0x56>	0
<0x57>	0
<0x58>	0
<0x59>	0
<0x5A>	0
<0x5B>	0
<0x5C>	0
<0x5D>	0
<0x5E>	0
<0x5F>	0
<0x60>	0
<0x61>	0
<0x62>	0
<0x63>	0
<0x64>	0
<0x65>	0
<0x66>	0
<0x67>	0
<0x68>	0
<0x69>	0
<0x6A>	0
<0x6B>	0
<0x6C>	0
<0x6D>	0
<0x6E>	0
<0x6F>	0
<0x70>	0
<0x71>	0
<0x72>	0
<0x73>	0
<0x74>	0
<0x75>	0
<0x76>	0
<0x77>	0
<0x78>	0
<0x79>	0
<0x7A>	0
<0x7B>	0
<0x7C>	0
<0x7D>	0
<0x7E>	0
<0x7F>	0
<0x80>	0
<0x81>	0
<0x82>	0
<0x83>	0
<0x84>	0
<0x85>	0
<0x86>	0
<0x87>	0
<0x88>	0
<0x89>	0
<0x8A>	0
<0x8B>	0
<0x8C>	0
<0x8D>	0
<0x8E>	0
<0x8F>	0
<0x90>	0
<0x91>	0
<0x92>	0
<0x93>	0
<0x94>	0
<0x95>	0
<0x96>	0
<0x97>	0
<0x98>	0
<0x99>	0
<0x9A>	0
<0x9B>	0
<0x9C>	0
<0x9D>	0
<0x9E>	0
<0x9F>	0
<0xA0>	0
<0xA1>	0
<0xA2>	0
<0xA3>	0
<0xA4>	0
<0xA5>	0
<0xA6>	0
<0xA7>	0
<0xA8>	0
<0xA9>	0
<0xAA>	0
<0xAB>	0
<0xAC>	0
<0xAD>	0
<0xAE>	0
<0xAF>	0
<0xB0>	0
<0xB1>	0
<0xB2>	0
<0xB3>	0
<0xB4>	0
<0xB5>	0
<0xB6>	0
<0xB7>	0
<0xB8>	0
<0xB9>	0
<0xBA>	0
<0xBB>	0
<0xBC>	0
<0xBD>	0
<0xBE>	0
<0xBF>	0
<0xC0>	0
<0xC1>	0
<0xC2>	0
<0xC3>	0
<0xC4>	0
<0xC5>	0
<0xC6>	0
<0xC7>	0
<0xC8>	0
<0xC9>	0
<0xCA>	0
<0xCB>	0
<0xCC>	0
<0xCD>	0
<0xCE>	0
<0xCF>	0
<0xD0>	0
<0xD1>	0
<0xD2>	0
<0xD3>	0
<0xD4>	0
<0xD5>	0
<0xD6>	0
<0xD7>	0
<0xD8>	0
<0xD9>	0
<0xDA>	0
<0xDB>	0
<0xDC>	0
<0xDD>	0
<0xDE>	0
<0xDF>	0
<0xE0>	0
<0xE1>	0
<0xE2>	0
<0xE3>	0
<0xE4>	0
<0xE5>	0
<0xE6>	0
<0xE7>	0
<0xE8>	0
<0xE9>	0
<0xEA>	0
<0xEB>	0
<0xEC>	0
<0xED>	0
<0xEE>	0
<0xEF>	0
<0xF0>	0
<0xF1>	0
<0xF2>	0
<0xF3>	0
<0xF4>	0
<0xF5>	0
<0xF6>	0
<0xF7>	0
<0xF8>	0
<0xF9>	0
<0xFA>	0
<0xFB>	0
<0xFC>	0
<0xFD>	0
<0xFE>	0
<0xFF>	0
▁کے	-3.95478
▁کی	-4.26168
▁ki	-4.27551
▁ke	-4.27945
▁میں	-4.30931
▁mein	-4.36366
▁hai	-4.38185
▁سے	-4.76955
▁اور	-4.78797
▁نے	-4.8269
▁se	-4.88049
▁کا	-4.9217
▁کو	-4.92653
،	-4.94829
▁ka	-5.01321
▁to	-5.06337
▁ko	-5.09057
▁ہے	-5.10703
▁پر	-5.12134
▁bhi	-5.13783
▁aur	-5.17582
▁hain	-5.18874
▁کہ	-5.1983
▁	-5.22328
▁ne	-5.29297
▁nahi	-5.31056
▁is	-5.4081
▁اس	-5.542
▁par	-5.57056
▁aap	-5.61767
▁ہے۔	-5.69628
▁kar	-5.72778
▁ho	-5.74116
▁hi	-5.75519
▁kya	-5.81725
▁بھی	-5.885
ی	-5.92069
▁کر	-5.93123
▁ایک	-5.93291
▁کیا	-5.99419
▁woh	-6.01414
▁aik	-6.04939
▁ہیں	-6.07264
▁hon	-6.11274
▁nah	-6.15182
▁!	-6.20198
▁bohat	-6.21669
▁کہا	-6.21978
▁liye	-6.22659
▁ان	-6.23944
▁tha	-6.24257
▁(	-6.25895
وں	-6.28507
-	-6.29604
▁نہیں	-6.30968
▁jo	-6.31699
▁کرنے	-6.32873
▁،	-6.33299
i	-6.34105
▁یہ	-6.38286
▁hum	-6.39644
▁ab	-6.4005
▁ہیں۔	-6.40767
▁un	-6.42067
▁"	-6.44196
▁kuch	-6.47418
)	-6.49126
▁baat	-6.51877
▁-	-6.53479
▁پاکستان	-6.55182
▁لیے	-6.55249
▁گیا	-6.57778
▁۔	-6.57983
▁mujhe	-6.61113
▁ga	-6.6466
▁ہوئے	-6.68675
▁وہ	-6.69554
▁bhai	-6.71015
۔	-6.71615
ا	-6.72399
▁phir	-6.73733
▁جس	-6.74153
▁ہو	-6.74477
ز	-6.75873
▁تھا	-6.77687
ہ	-6.78269
▁مطابق	-6.79562
▁.	-6.80354
▁ساتھ	-6.80616
▁و	-6.80668
▁nazar	-6.8144
▁gaya	-6.81528
▁پی	-6.8216
▁جو	-6.82543
▁بعد	-6.8322
▁sab	-6.84028
▁تو	-6.84447
ر	-6.88512
:	-6.89352
▁sun	-6.8993
▁سی	-6.90691
▁na	-6.90923
▁o	-6.91018
▁dil	-6.91026
▁اپنے	-6.91938
▁ya	-6.92216
▁ہی	-6.92582
س	-6.92731
▁:	-6.9301
▁raha	-6.94529
▁کرتے	-6.94851
s	-6.96833
a	-6.96971
▁Allah	-6.97998
y	-6.9826
▁تک	-6.98333
▁kisi	-6.98892
▁yeh	-7.02259
.	-7.02413
▁دیا	-7.03499
▁رہے	-7.03669
▁والے	-7.03845
hwa	-7.04292
▁خان	-7.04396
▁آئی	-7.04732
▁meri	-7.05617
و	-7.06483
ن	-7.0662
h	-7.07265
▁)	-7.0732
▁ہونے	-7.07909
▁taq	-7.09178
ء	-7.09859
م	-7.10575
▁انہوں	-7.10972
▁rahay	-7.13423
▁jee	-7.14237
▁حکومت	-7.15495
▁ge	-7.17071
e	-7.17676
▁لئے	-7.17779
▁jaye	-7.17925
on	-7.18165
▁apne	-7.1857
ے	-7.19021
▁diya	-7.19434
▁yahan	-7.20195
▁گئی	-7.20356
▁they	-7.20638
▁jab	-7.21356
▁jis	-7.22568
▁agar	-7.23214
▁say	-7.23566
▁lekin	-7.25053
▁ملک	-7.25246
ت	-7.25747
▁har	-7.25783
▁aaj	-7.25949
▁be	-7.26017
▁baad	-7.26228
▁di	-7.26276
▁sahib	-7.27312
▁gi	-7.28425
▁آپ	-7.28609
▁کہنا	-7.28615
▁sath	-7.2872
ل	-7.29149
▁جائے	-7.29212
▁خلاف	-7.29626
▁do	-7.30239
▁نہ	-7.3061
▁abhi	-7.31258
▁دی	-7.31881
▁جاری	-7.32637
▁tum	-7.33096
o	-7.34132
▁اپنی	-7.34721
▁rahi	-7.34974
▁ٹی	-7.35006
▁hota	-7.35848
▁naam	-7.3713
▁وزیر	-7.37166
t	-7.37232
▁کیلئے	-7.37244
▁pay	-7.37571
▁kyun	-7.38174
▁kaam	-7.38479
▁karne	-7.3877
▁مزید	-7.39037
▁ہم	-7.40034
▁پولیس	-7.41561
▁ja	-7.41635
▁جانب	-7.42321
▁طور	-7.42784
n	-7.43229
▁دو	-7.44066
▁gayi	-7.44226
ان	-7.44458
▁kabhi	-7.45648
▁day	-7.45893
▁karen	-7.47149
▁گئے	-7.47375
▁بی	-7.47677
▁سال	-7.48489
▁hue	-7.4853
▁pehlay	-7.48803
▁aa	-7.49841
▁افراد	-7.50392
▁mera	-7.51603
▁دوران	-7.51685
▁acha	-7.5221
▁magar	-7.5268
▁Pakistan	-7.5289
▁ye	-7.53464
▁یا	-7.53644
at	-7.53748
یں	-7.53971
▁gaye	-7.54057
▁کسی	-7.55179
▁کرکٹ	-7.55382
▁کوئی	-7.55973
▁پیش	-7.55999
▁جب	-7.56303
▁جا	-7.56926
▁kis	-7.56978
▁کام	-7.57676
▁اب	-7.57822
▁kaha	-7.57847
r	-7.57977
▁کریں	-7.58625
ک	-7.59028
▁din	-7.59135
▁وقت	-7.59271
▁زیادہ	-7.5972
▁آباد	-7.6007
▁گا	-7.60142
▁جبکہ	-7.60166
▁terhan	-7.60247
▁koi	-7.60249
▁تھا۔	-7.60928
نگ	-7.6112
▁لیکن	-7.61331
▁Dehli	-7.61605
▁khud	-7.61771
نا	-7.63022
▁waqt	-7.63293
▁sa	-7.63465
▁hui	-7.63704
▁سب	-7.64635
▁saal	-7.65211
▁والی	-7.66421
▁کم	-7.66478
▁بات	-7.6654
▁yaad	-7.6665
▁ایس	-7.67036
▁jata	-7.67146
ta	-7.67204
d	-7.67779
▁پہلے	-7.67936
▁ik	-7.68123
▁تمام	-7.6813
▁ہوا	-7.68145
▁nay	-7.68316
▁اے	-7.6878
▁لاہور	-7.6948
▁اسلام	-7.69608
▁wo	-7.69746
▁si	-7.69773
▁ڈی	-7.6983
▁walay	-7.7003
▁محمد	-7.70597
نے	-7.71018
▁le	-7.71566
▁mujh	-7.71726
▁صدر	-7.71903
▁ha	-7.72312
▁ziyada	-7.72595
▁kam	-7.72645
▁رہا	-7.72659
▁hoti	-7.72869
▁گے	-7.72984
▁bhiya	-7.7336
▁ایم	-7.7378
▁کرنا	-7.7491
▁2	-7.75068
▁kahin	-7.75773
▁اللہ	-7.75986
▁urdu	-7.76108
ay	-7.76192
,	-7.76352
▁حاصل	-7.77151
▁waisay	-7.77217
▁karna	-7.77279
▁ٹیم	-7.77746
▁عمران	-7.78614
▁بتایا	-7.7876
▁بہت	-7.79257
▁he	-7.79386
پ	-7.79414
▁ban	-7.79813
l	-7.80031
ع	-7.81592
▁ال	-7.81755
▁گے۔	-7.82109
▁کراچی	-7.8223
▁دے	-7.82294
▁kahan	-7.82384
ری	-7.82458
ٹ	-7.82582
▁usay	-7.82795
▁میڈیا	-7.82816
د	-7.83048
▁pata	-7.83177
▁baghaawat	-7.83231
▁aisa	-7.83287
▁log	-7.83633
▁شروع	-7.83873
ب	-7.84454
m	-7.84552
na	-7.84776
▁mehfhil	-7.84868
▁گی	-7.85144
‘	-7.85145
▁دیگر	-7.85192
▁aeye	-7.8549
▁تھی	-7.85787
▁isi	-7.85789
▁آج	-7.85924
▁شامل	-7.8602
▁ہر	-7.86315
▁استعمال	-7.86542
▁گا۔	-7.86689
▁او	-7.86739
▁وجہ	-7.86869
(	-7.87223
▁رہی	-7.87417
▁پنجاب	-7.8763
ti	-7.87636
▁mamu	-7.88226
ِ	-7.88839
b	-7.89039
▁janab	-7.89103
▁تھے	-7.8917
▁ہوئی	-7.89808
▁3	-7.90516
▁baar	-7.90534
an	-7.90871
▁sirf	-7.91869
ف	-7.92104
▁mil	-7.92168
▁ہوں	-7.92657
ق	-7.92776
k	-7.92777
▁علی	-7.93376
▁yahi	-7.93411
ش	-7.93561
▁روز	-7.93684
▁ae	-7.93917
▁عوام	-7.94106
▁zindagi	-7.94223
▁,	-7.94288
▁کچھ	-7.9465
▁taraf	-7.95134
▁den	-7.95248
▁al	-7.95348
▁mubarak	-7.9555
▁apna	-7.96179
▁jaan	-7.96237
تی	-7.96534
▁کیا۔	-7.96556
▁م	-7.96675
▁khayaal	-7.96726
▁kon	-7.96889
▁aaya	-7.96968
▁اگر	-7.97213
▁in	-7.97431
▁جانے	-7.97952
▁وزیراعظم	-7.98034
▁dekh	-7.9806
▁گیا۔	-7.98484
▁نام	-7.99191
▁جی	-7.99195
▁ن	-8.00441
▁طرح	-8.00515
▁جن	-8.00568
▁keh	-8.00806
▁hamein	-8.01133
▁موقع	-8.01308
ar	-8.01659
▁غیر	-8.01892
▁karta	-8.02112
ra	-8.02222
▁عدالت	-8.02429
▁theek	-8.02913
▁لوگوں	-8.03111
▁kaisay	-8.03202
▁تھے۔	-8.03283
ri	-8.03692
▁len	-8.03856
▁انہیں	-8.04027
▁honay	-8.04056
▁دنیا	-8.04235
▁حوالے	-8.04363
▁فیصلہ	-8.04752
ڈ	-8.04771
کی	-8.05617
▁bana	-8.05803
▁لے	-8.05944
u	-8.06105
ات	-8.06264
▁گی۔	-8.06287
al	-8.06464
▁jawab	-8.07031
▁صرف	-8.07149
ج	-8.07393
▁5	-8.07562
▁تین	-8.07648
▁so	-8.07968
▁shayad	-8.08184
▁aisay	-8.08195
اس	-8.08401
▁رپورٹ	-8.08816
▁اسے	-8.08846
▁دن	-8.08914
▁chahiye	-8.08934
▁طرف	-8.09029
▁روپے	-8.09187
▁achi	-8.09415
▁سمیت	-8.09509
▁موجود	-8.09807
یہ	-8.10145
▁19	-8.10377
▁aayi	-8.10411
▁jayen	-8.10423
z	-8.10669
▁liya	-8.10779
▁tou	-8.10837
▁wali	-8.10857
اں	-8.11353
▁لیا	-8.1166
ح	-8.11695
▁پارٹی	-8.11854
▁likha	-8.12135
▁عمل	-8.12281
تا	-8.12307
▁دینے	-8.12642
▁قبل	-8.12647
▁امریکی	-8.12854
▁kal	-8.1293
g	-8.13104
؟	-8.13687
▁khush	-8.13786
▁logon	-8.14033
▁قومی	-8.14475
▁سابق	-8.14665
▁شہر	-8.14673
▁ای	-8.14724
▁samajh	-8.14731
▁آف	-8.14979
▁4	-8.1498
▁لیگ	-8.15007
▁khoob	-8.1506
▁این	-8.15218
▁hotay	-8.15479
▁kere	-8.15668
▁e	-8.15681
▁’	-8.15745
▁مختلف	-8.15757
▁بے	-8.15853
▁بیان	-8.16049
f	-8.16211
▁pi	-8.1627
▁lagta	-8.16297
p	-8.1643
▁شریف	-8.16496
کر	-8.16845
▁بن	-8.17036
ون	-8.17427
▁a	-8.17481
▁jahan	-8.17727
▁اجلاس	-8.17733
▁بھر	-8.17795
▁haan	-8.17832
j	-8.18097
▁haal	-8.18267
▁بھارتی	-8.18447
تے	-8.18544
▁بھارت	-8.18594
▁درمیان	-8.1902
▁نظر	-8.19373
▁10	-8.19493
ya	-8.19961
▁دونوں	-8.20371
nay	-8.20503
▁پاکستانی	-8.20554
▁میچ	-8.21148
▁ta	-8.21311
▁hoga	-8.21323
▁Shamshad	-8.21641
ور	-8.21793
▁sakta	-8.21874
▁اعظم	-8.21877
▁raat	-8.21984
ین	-8.22093
▁مکمل	-8.22294
▁جاتا	-8.2233
▁کردیا	-8.22435
▁ر	-8.22551
▁jaane	-8.22612
ال	-8.22743
▁آر	-8.23387
▁پھر	-8.23656
▁wala	-8.24198
▁تھی۔	-8.24237
▁آ	-8.24275
کے	-8.25215
▁ا	-8.2556
▁yun	-8.25627
▁shair	-8.25656
▁hamaray	-8.25776
wa	-8.25922
▁گھر	-8.2598
▁کورونا	-8.26092
▁paas	-8.26534
▁اہم	-8.26638
▁اسمبلی	-8.26756
▁سامنے	-8.26765
▁jaisay	-8.2687
▁ایف	-8.26875
▁گزشتہ	-8.27016
کا	-8.27302
▁نیوز	-8.27401
▁تاہم	-8.27594
یا	-8.2764
▁کی۔	-8.2766
▁mohabbat	-8.27943
▁اعلان	-8.28031
▁20	-8.28207
▁اظہار	-8.2825
نی	-8.28297
▁خواتین	-8.28615
▁kay	-8.28763
▁naan	-8.28863
▁ہزار	-8.28871
▁shuru	-8.28947
▁نواز	-8.2933
▁چیف	-8.29338
▁کیے	-8.30199
▁بار	-8.30249
▁bi	-8.30255
▁شاہ	-8.30707
▁کار	-8.3093
▁jati	-8.31282
▁بنانے	-8.31601
▁1	-8.31632
▁تحریک	-8.31646
▁ghazal	-8.31666
▁kkhuda	-8.31786
▁ہوتا	-8.32051
▁خود	-8.32529
لی	-8.33207
▁dekha	-8.33233
▁zara	-8.33268
▁m	-8.33282
▁لی	-8.33282
▁6	-8.33336
in	-8.33706
سی	-8.3376
▁pasand	-8.33797
▁shehar	-8.3385
▁ڈاکٹر	-8.33965
▁tamam	-8.34094
گ	-8.34264
ne	-8.34342
▁جنرل	-8.34482
▁سندھ	-8.35262
▁فلم	-8.3538
▁aisi	-8.35578
▁apni	-8.35955
▁واضح	-8.36076
ار	-8.3622
▁احمد	-8.36356
کو	-8.36704
▁wajah	-8.36705
▁wah	-8.36868
ad	-8.3711
▁az	-8.37407
▁عمر	-8.37437
▁'	-8.37619
▁ت	-8.37753
▁islam	-8.37785
▁ٹیسٹ	-8.37833
▁وی	-8.37978
▁متعلق	-8.3799
▁kehte	-8.38006
sh	-8.38381
▁کورٹ	-8.38459
la	-8.38964
▁atay	-8.39029
▁فراہم	-8.39252
▁ادا	-8.39287
te	-8.3953
▁kaafi	-8.39807
▁عالمی	-8.39882
▁dono	-8.39987
▁کرتا	-8.40131
ٹی	-8.402
▁تفصیلات	-8.40303
▁عرب	-8.40312
▁jin	-8.40334
▁بنا	-8.40423
er	-8.40438
▁s	-8.40521
▁sawal	-8.40553
▁rakha	-8.40638
▁taham	-8.40956
▁الیکشن	-8.41107
▁ایل	-8.41117
li	-8.41118
ye	-8.41121
▁بارے	-8.41699
▁sipahi	-8.41877
ط	-8.42081
چ	-8.42164
▁درخواست	-8.42317
▁kha	-8.42647
▁بین	-8.42649
▁جہاں	-8.42699
▁بند	-8.42888
▁نئی	-8.43374
▁گرفتار	-8.43553
▁ممالک	-8.43628
en	-8.43661
▁قرار	-8.43799
▁اپنا	-8.44026
▁salam	-8.44627
▁سعودی	-8.44642
▁کرکے	-8.44753
▁tor	-8.45006
▁فوج	-8.45046
▁itna	-8.45167
ص	-8.45442
▁shaam	-8.45569
▁خصوصی	-8.45648
▁صحت	-8.45676
▁reh	-8.45691
▁مل	-8.45846
ائی	-8.45866
▁تعداد	-8.46355
▁batain	-8.46498
▁کشمیر	-8.46579
▁کرے	-8.46717
▁ختم	-8.46773
▁علاقے	-8.46784
▁mazeed	-8.46912
▁dar	-8.47097
▁itni	-8.47335
am	-8.47503
▁yani	-8.47699
▁کھلاڑی	-8.47717
▁کئی	-8.47836
▁مدد	-8.47901
▁soch	-8.48092
▁Mohammad	-8.48176
▁آنے	-8.48286
▁ذرائع	-8.48344
▁gham	-8.48915
لا	-8.48953
▁baray	-8.49204
▁رنز	-8.49541
دی	-8.49892
را	-8.49923
▁سو	-8.49964
_	-8.5003
▁باعث	-8.5003
▁baqi	-8.50305
▁wohi	-8.50394
▁tu	-8.50625
▁ملاقات	-8.50716
بی	-8.5075
▁ذریعے	-8.50898
▁hamari	-8.509
▁18	-8.51055
▁مسلم	-8.51095
▁bilkul	-8.51189
▁بڑی	-8.51348
▁لائن	-8.51694
▁nai	-8.51886
▁کوشش	-8.51949
▁اضافہ	-8.52073
وا	-8.52202
▁tak	-8.52629
▁wahan	-8.53003
▁تحت	-8.53103
▁چار	-8.53387
▁ترین	-8.53599
▁ماہ	-8.53678
▁دوسرے	-8.54154
▁علاوہ	-8.54161
▁سر	-8.54273
▁ل	-8.54273
▁دور	-8.54275
▁kher	-8.54458
▁am	-8.54545
▁سیاسی	-8.54633
▁پاس	-8.54706
▁تیار	-8.54785
▁kitaab	-8.54877
▁دوسری	-8.54929
▁khabar	-8.55205
ma	-8.55212
▁انصاف	-8.55213
▁marey	-8.55361
▁of	-8.55652
▁paish	-8.55653
▁جائیں	-8.56054
▁karo	-8.56134
▁the	-8.56191
▁d	-8.56348
▁7	-8.56545
▁لوگ	-8.56634
▁ہمارے	-8.56749
▁وائرس	-8.56893
nd	-8.56915
▁دیا۔	-8.5737
▁mojood	-8.57497
▁inhen	-8.58125
▁teen	-8.58293
▁دہشت	-8.58312
▁چین	-8.5838
▁kayi	-8.58522
▁سرکاری	-8.58656
▁kab	-8.58697
ha	-8.58741
▁jagah	-8.58922
▁lau	-8.5894
▁عام	-8.59159
میں	-8.59206
▁8	-8.59247
'	-8.59262
▁dua	-8.59331
▁جسٹس	-8.59449
▁سکتا	-8.59576
▁کل	-8.59908
▁اسی	-8.59983
▁Umar	-8.60175
▁فی	-8.60369
▁ہوتی	-8.60453
▁حکام	-8.60678
▁chal	-8.60785
▁شرکت	-8.60975
▁متحدہ	-8.60993
▁وفاقی	-8.61045
▁malik	-8.61297
▁and	-8.61355
▁کمیٹی	-8.61477
▁ضرورت	-8.61478
▁نئے	-8.61487
▁satke	-8.61621
▁ویڈیو	-8.6168
▁jana	-8.61909
پی	-8.62203
▁زخمی	-8.62444
▁جواب	-8.62576
▁زندگی	-8.62595
▁شخص	-8.62758
▁barri	-8.62778
▁taa	-8.62838
▁bayan	-8.63051
▁Karachi	-8.63579
▁حسین	-8.63628
▁درج	-8.63679
▁سکتے	-8.63839
▁ishhq	-8.63909
▁istemaal	-8.63909
▁رکھنے	-8.63925
▁خیال	-8.64043
▁والوں	-8.64113
▁or	-8.64154
▁15	-8.64157
2	-8.6419
خ	-8.64246
▁teri	-8.64586
▁tasweer	-8.64727
▁کیس	-8.64734
▁9	-8.64773
▁قتل	-8.65084
▁کارروائی	-8.65193
▁mushkil	-8.65236
▁yay	-8.65285
▁haasil	-8.65409
ڑ	-8.65628
▁aati	-8.65683
ئی	-8.65767
▁bta	-8.65781
▁پہلی	-8.6592
▁mila	-8.66267
▁رہنما	-8.66497
▁shayar	-8.66502
▁پیدا	-8.66649
▁12	-8.66689
1	-8.66763
▁خطاب	-8.66938
▁umeed	-8.67274
▁ایسے	-8.67326
re	-8.67357
ول	-8.67371
▁subah	-8.67451
▁والا	-8.67549
▁کئے	-8.67867
▁زیر	-8.67912
▁کردی	-8.68013
▁پہنچ	-8.68064
ak	-8.68089
▁li	-8.68328
▁چیئرمین	-8.68507
▁انتخابات	-8.68672
ni	-8.68735
▁roz	-8.69167
▁کمیشن	-8.69209
▁behtar	-8.69339
▁ہلاک	-8.69451
▁لاکھ	-8.69459
▁حصہ	-8.69535
▁bara	-8.69567
da	-8.69568
▁کیونکہ	-8.69718
▁bhar	-8.69746
▁بچوں	-8.69774
▁hona	-8.69825
▁س	-8.70098
▁lag	-8.70143
▁بلکہ	-8.70237
▁deta	-8.70381
▁پاک	-8.70827
▁zaroorat	-8.70982
▁warna	-8.71119
▁کردار	-8.71152
▁خاتون	-8.71466
▁حکم	-8.71571
▁گئی۔	-8.71604
پر	-8.7163
َ	-8.71666
▁ہوگا	-8.7169
▁دیں	-8.71833
▁kiye	-8.7186
q	-8.72117
▁barray	-8.72188
▁بل	-8.72198
▁قائم	-8.72431
▁فیصد	-8.72653
▁karti	-8.72697
▁نمبر	-8.72723
▁ع	-8.72963
▁anay	-8.72977
▁koshish	-8.73063
▁matlab	-8.73267
▁زائد	-8.73451
▁بہتر	-8.73458
▁دیتے	-8.73563
▁سطح	-8.73631
▁بورڈ	-8.73642
اور	-8.73741
▁الاقوامی	-8.73813
▁ب	-8.74259
▁فون	-8.74319
▁ترقی	-8.74362
▁unhon	-8.74363
▁آغاز	-8.74373
▁A	-8.74455
▁شدید	-8.7456
▁mout	-8.74561
▁daur	-8.74573
▁دل	-8.74715
ah	-8.74767
▁khawab	-8.75285
▁der	-8.75412
▁قانون	-8.75444
▁کن	-8.75659
▁aakhir	-8.76029
▁جات	-8.76033
▁iss	-8.76369
▁شادی	-8.76409
▁maloom	-8.7654
ch	-8.7665
▁bahar	-8.76768
▁ادارے	-8.76788
▁ہمیں	-8.77035
▁suna	-8.77155
▁cheez	-8.77264
▁khusi	-8.77345
/	-8.77369
▁mar	-8.77398
▁chand	-8.77566
▁pehli	-8.77724
▁haq	-8.77836
▁zaroor	-8.7788
▁جلد	-8.77887
▁آئے	-8.77931
انی	-8.78095
▁پانی	-8.78324
▁kyunkay	-8.78487
▁حل	-8.78493
▁parh	-8.78546
▁likh	-8.78563
▁chalay	-8.78662
▁khatam	-8.78698
▁f	-8.78778
▁وزارت	-8.78832
ee	-8.79017
▁خبر	-8.79044
▁سوشل	-8.79274
▁واقع	-8.79346
▁مجھے	-8.79521
▁کمی	-8.79713
▁ma	-8.79799
▁Khan	-8.7982
▁aqwami	-8.79867
▁ہدایت	-8.80134
▁11	-8.80151
▁bhool	-8.80379
▁wa	-8.80386
▁hazaar	-8.80419
w	-8.80595
▁sakti	-8.80615
ئے	-8.80724
▁اجازت	-8.8081
▁abbu	-8.80815
▁ameeen	-8.81006
▁ایسا	-8.81538
ana	-8.81575
تھ	-8.81616
▁peda	-8.81792
▁حوالہ	-8.81795
▁آن	-8.82038
▁rang	-8.82127
ُ	-8.82266
▁چھ	-8.82457
▁Ahmed	-8.82589
▁tehreer	-8.82789
▁بڑے	-8.82998
”	-8.83052
▁سماعت	-8.83202
le	-8.83546
ض	-8.8357
▁تعلیم	-8.83727
▁pa	-8.83855
▁pani	-8.83858
اب	-8.83892
▁تقریب	-8.83892
▁گفتگو	-8.83995
رو	-8.84044
▁پروگرام	-8.84093
▁ghair	-8.84147
▁محکمہ	-8.84245
▁agay	-8.84307
▁ضلع	-8.84389
▁gir	-8.84412
hi	-8.8454
می	-8.84696
▁aakhri	-8.84807
kaar	-8.84871
▁باہر	-8.85015
▁ensaan	-8.85215
▁shadi	-8.85226
▁قریب	-8.85362
ائ	-8.85415
▁ہوتے	-8.85445
▁dard	-8.8565
▁مسائل	-8.85844
▁dost	-8.85853
▁اینڈ	-8.86114
▁نا	-8.8613
▁balkay	-8.86244
▁اداروں	-8.86251
▁جاتی	-8.86429
▁saaray	-8.86664
▁ڈالر	-8.86853
▁14	-8.87068
▁dete	-8.87121
▁جے	-8.87222
▁یو	-8.87231
▁chaar	-8.87294
کس	-8.87454
▁آیا	-8.87472
▁کریں۔	-8.87492
▁چند	-8.87505
▁jari	-8.87634
▁hazrat	-8.87703
▁zabaan	-8.87703
▁deen	-8.87744
▁گئے۔	-8.87783
▁ilm	-8.87914
▁ملکی	-8.88021
▁hukoomat	-8.88123
▁walon	-8.88129
▁yaar	-8.88256
لے	-8.88276
▁واپس	-8.88282
نٹ	-8.88297
▁شہباز	-8.88363
▁aankhon	-8.88546
▁rahen	-8.88588
st	-8.88666
▁نو	-8.8869
یت	-8.887
▁dainay	-8.88769
▁افغانستان	-8.88784
▁سالہ	-8.88836
▁مطالبہ	-8.8897
▁مگر	-8.88986
▁tareekh	-8.89021
▁hoon	-8.89031
▁chaye	-8.89052
▁ایچ	-8.89236
ng	-8.89298
دار	-8.89417
si	-8.89509
▁ایران	-8.89597
▁بغیر	-8.89613
"	-8.89715
▁tre	-8.89779
‘‘	-8.89823
▁علاقوں	-8.89837
▁laga	-8.89847
▁kr	-8.89851
▁sach	-8.89879
نس	-8.90052
▁parre	-8.90094
▁جان	-8.90169
▁یونیورسٹی	-8.90487
▁حملے	-8.90693
سٹ	-8.90716
▁Pakistani	-8.90871
▁اقدامات	-8.90915
or	-8.90924
▁مارچ	-8.90978
▁تاریخ	-8.91115
▁تاکہ	-8.91127
▁کمپنی	-8.91361
▁ہوگا۔	-8.91361
▁pr	-8.914
▁ہائی	-8.91465
▁ریکارڈ	-8.91503
▁arrey	-8.91553
▁ری	-8.91639
▁ریاست	-8.91654
ba	-8.91699
▁lagey	-8.91791
ur	-8.91833
di	-8.91948
▁kh	-8.92032
▁جگہ	-8.92045
▁tujh	-8.92134
▁امریکہ	-8.92233
▁ترجمان	-8.92262
▁شیخ	-8.92478
ئر	-8.92556
▁Ali	-8.92568
بر	-8.92772
▁انتظامیہ	-8.92904
▁30	-8.92995
▁بنایا	-8.93045
▁soorat	-8.93095
▁masla	-8.93111
▁aam	-8.93272
▁سپریم	-8.93318
▁dosray	-8.93368
انہ	-8.93575
▁لینڈ	-8.93584
ka	-8.93625
▁chay	-8.93758
▁تعلق	-8.93765
▁سیریز	-8.94004
▁b	-8.94011
▁’’	-8.94568
▁یہاں	-8.94629
▁لگا	-8.94806
وی	-8.94817
ٹر	-8.94863
▁جنگ	-8.94867
▁مقامی	-8.94873
▁صورت	-8.94877
▁test	-8.94887
▁پوری	-8.94898
▁samnay	-8.95112
▁chore	-8.95129
▁band	-8.95135
▁پانچ	-8.95328
▁24	-8.95346
▁tri	-8.95351
ما	-8.95559
▁نظام	-8.95571
ڈی	-8.95619
▁k	-8.95673
▁فہرست	-8.95732
▁جیسے	-8.95817
▁یاد	-8.95822
▁صوبائی	-8.95866
▁قوم	-8.9599
▁فوری	-8.96076
▁سربراہ	-8.96206
▁کرتی	-8.96231
▁بلوچستان	-8.96243
▁g	-8.96274
ir	-8.96451
▁بہترین	-8.96786
▁امن	-8.96821
ing	-8.96863
tay	-8.9688
3	-8.96976
▁ذمہ	-8.97162
▁maa	-8.97276
▁jaldi	-8.97281
▁pak	-8.9731
▁lafz	-8.97315
kh	-8.9742
▁dena	-8.97424
▁لا	-8.97538
▁gay	-8.97618
▁aamdeed	-8.97623
▁ارب	-8.97745
▁دورہ	-8.97836
▁اسلامی	-8.98162
▁تعاون	-8.9832
oon	-8.98337
▁miley	-8.98349
▁ada	-8.98493
7	-8.9856
5	-8.98563
▁کانفرنس	-8.98565
▁tab	-8.98626
▁achay	-8.98716
un	-8.98733
▁durust	-8.98788
▁پا	-8.98814
▁تر	-8.98953
▁dr	-8.98986
▁dam	-8.98994
▁chalein	-8.99034
ai	-8.99048
▁فیصلے	-8.99065
▁کونسل	-8.99102
▁ویب	-8.99108
▁بینک	-8.99174
بل	-8.99234
▁صورتحال	-8.99261
یر	-8.99417
▁go	-8.9946
▁ملزم	-8.99495
▁ہماری	-8.99559
▁جون	-8.99701
▁خارجہ	-8.99788
▁ba	-8.99954
▁raah	-8.99993
▁مرکزی	-9.0003
▁mun	-9.00046
▁سید	-9.00289
▁mukammal	-9.00443
▁bhala	-9.00448
yon	-9.0047
▁جنوبی	-9.00499
▁قابل	-9.00514
▁dekhen	-9.00531
▁jung	-9.00901
▁قیمت	-9.01036
ab	-9.01149
▁حملہ	-9.01188
ئ	-9.01224
غ	-9.01237
▁با	-9.01325
▁khobsorat	-9.01401
▁مولانا	-9.01449
▁nikal	-9.01931
▁bay	-9.01955
▁اداکارہ	-9.01991
▁h	-9.02117
▁اعلیٰ	-9.02139
▁hamesha	-9.02368
▁bachay	-9.02453
▁حال	-9.02477
▁نقصان	-9.02588
▁hay	-9.02623
▁جماعت	-9.02668
▁شکست	-9.02861
▁ro	-9.02874
▁sh	-9.0302
ed	-9.03085
▁kehna	-9.03122
انے	-9.03136
▁saari	-9.0339
▁guzar	-9.03472
▁y	-9.03506
▁شہریوں	-9.03547
▁جائے۔	-9.03578
▁quran	-9.03592
▁گروپ	-9.03691
▁hamara	-9.03746
▁ghalat	-9.03835
▁علیہ	-9.03848
▁اپ	-9.03851
▁لینے	-9.03942
▁sy	-9.03975
▁de	-9.04175
sa	-9.04376
▁ڈیسک	-9.04386
▁13	-9.04388
ْ	-9.04429
▁karte	-9.04449
▁hal	-9.0445
▁itnay	-9.04508
▁عائد	-9.0458
▁فرانس	-9.04603
▁فوجی	-9.0477
▁17	-9.04774
il	-9.04872
▁ہونا	-9.0507
▁intzaar	-9.05078
▁ابھی	-9.05097
سے	-9.05179
▁جمع	-9.05201
▁ج	-9.05215
▁aleh	-9.05311
▁mutabiq	-9.05328
یو	-9.05489
▁shukar	-9.05579
▁دوبارہ	-9.05579
▁ہسپتال	-9.05658
za	-9.05685
▁پسند	-9.05727
▁من	-9.05875
▁ک	-9.05907
▁رات	-9.05921
▁bhae	-9.061
▁بجلی	-9.0611
▁dun	-9.06192
▁ضروری	-9.06194
▁diye	-9.06221
▁thi	-9.06292
▁mausam	-9.06334
▁Dur	-9.06338
رز	-9.06344
▁ٹیکس	-9.06349
یوں	-9.06431
ja	-9.06507
▁B	-9.06509
ہے	-9.06535
▁amal	-9.06724
کہ	-9.0674
▁ra	-9.06778
▁hogi	-9.0679
▁dafaa	-9.06841
▁سامنا	-9.06848
▁پشاور	-9.0686
▁16	-9.069
▁America	-9.07096
▁ilawa	-9.07099
▁حق	-9.07243
▁tera	-9.07254
▁فائرنگ	-9.07619
▁احتجاج	-9.07628
▁اپریل	-9.07651
▁آپریشن	-9.07675
▁25	-9.07766
’	-9.07787
▁gai	-9.07815
▁متعلقہ	-9.0783
▁number	-9.07863
A	-9.07893
▁بچے	-9.07897
▁سوال	-9.07913
▁قانونی	-9.07972
▁نیب	-9.07996
▁رکھا	-9.08071
▁اپوزیشن	-9.08157
▁TV	-9.08379
▁بڑا	-9.08431
▁سخت	-9.08625
▁zamane	-9.08636
▁husn	-9.08636
▁tar	-9.08867
▁الزام	-9.08888
▁haqeeqat	-9.08895
▁p	-9.09208
▁وہاں	-9.09224
▁جیل	-9.09335
▁کہاکہ	-9.0936
فی	-9.09377
ائے	-9.09381
▁ayen	-9.0948
▁hogaya	-9.09482
▁کھلاڑیوں	-9.09498
▁اختیار	-9.09629
لو	-9.09632
▁دار	-9.09649
▁امریکا	-9.09707
▁چوہدری	-9.09741
▁khanay	-9.09795
شی	-9.09813
▁دیکھ	-9.0997
▁islami	-9.10125
ام	-9.10492
▁paaya	-9.10728
▁اندر	-9.10886
▁lagi	-9.10993
▁بحق	-9.10996
▁شہری	-9.11015
▁نماز	-9.11019
!	-9.11249
▁ہفتے	-9.11258
▁چکے	-9.11275
▁مین	-9.11298
▁بس	-9.11315
aat	-9.11475
▁bar	-9.11483
▁صارفین	-9.11548
▁عوامی	-9.11776
een	-9.11778
▁انتہائی	-9.11795
▁“	-9.11834
▁پابندی	-9.11876
▁نوجوان	-9.11892
▁رکن	-9.11895
▁مارکیٹ	-9.1201
▁behar	-9.12105
لہ	-9.12182
▁کامیاب	-9.12293
▁asal	-9.12353
ٹا	-9.12368
▁شکار	-9.12624
▁نشانہ	-9.12636
▁ghalib	-9.12826
▁kehta	-9.13057
▁waqai	-9.13134
▁‘	-9.13403
▁فروخت	-9.13431
▁کروڑ	-9.13593
▁برس	-9.13611
▁sha	-9.13726
▁روڈ	-9.1374
▁maza	-9.13741
▁مار	-9.13745
▁dekhte	-9.13748
▁چینی	-9.13807
▁kalaam	-9.13966
▁c	-9.14145
▁shoq	-9.14223
4	-9.14347
▁chuka	-9.14408
▁گو	-9.14408
▁حقوق	-9.14497
▁utar	-9.14497
▁aks	-9.14527
▁pehla	-9.1468
▁shakhs	-9.14767
▁idhar	-9.14771
▁مقدمہ	-9.15083
▁باوجود	-9.15323
▁نیشنل	-9.15362
▁خبریں	-9.15436
▁معاملے	-9.156
▁مئی	-9.15613
▁پور	-9.15677
▁izhaar	-9.15878
▁منتقل	-9.15891
▁tarah	-9.15908
▁میرے	-9.15967
▁/	-9.16018
▁تا	-9.16081
▁تازہ	-9.1616
▁janib	-9.1617
▁اہل	-9.1618
▁ش	-9.16278
▁دیکھا	-9.16288
▁مہم	-9.16388
▁کارکردگی	-9.16436
▁شام	-9.16457
▁ہوا۔	-9.1646
▁mra	-9.16511
▁shab	-9.16563
▁kehnay	-9.16631
▁ٹوئنٹی	-9.16716
▁Bharat	-9.16716
▁قیادت	-9.16716
▁no	-9.1697
▁سیکرٹری	-9.16989
▁طلب	-9.16992
▁خاص	-9.17001
ث	-9.17004
▁poori	-9.17038
▁انسانی	-9.17074
با	-9.17233
▁کپ	-9.17313
نڈ	-9.17462
▁علاج	-9.17589
▁ف	-9.17806
▁ون	-9.17809
9	-9.17852
▁eid	-9.17866
c	-9.17895
▁ch	-9.17908
▁قسم	-9.18023
▁کبھی	-9.18134
▁das	-9.1816
20	-9.18234
▁ما	-9.18353
▁مسجد	-9.18414
▁کامیابی	-9.18469
▁کمشنر	-9.18699
▁ہوگی	-9.18774
▁آخری	-9.18868
▁naya	-9.18875
▁mo	-9.18959
▁ahem	-9.18986
▁محمود	-9.18986
▁numaish	-9.18987
ند	-9.18996
▁letay	-9.19041
▁کیخلاف	-9.19208
ro	-9.19304
▁پریس	-9.19311
اد	-9.19378
▁انتقال	-9.19429
▁21	-9.19451
▁کرلیا	-9.19503
▁andaaz	-9.19561
▁boqt	-9.19561
▁doosri	-9.19561
▁zikar	-9.19566
▁sada	-9.19587
▁sahih	-9.19645
▁bad	-9.19837
▁mohtaram	-9.1985
▁da	-9.19917
▁sahi	-9.2009
▁متعدد	-9.20161
▁harry	-9.20177
▁chalo	-9.20254
▁ملزمان	-9.20263
دا	-9.20435
▁sir	-9.20461
▁اردو	-9.20563
▁taaruf	-9.20723
▁چاہتے	-9.20731
▁آصف	-9.20753
▁رو	-9.2095
▁yaqeen	-9.20977
ani	-9.21093
▁zahir	-9.21134
▁bananay	-9.21135
▁موجودہ	-9.21274
▁سزا	-9.21296
▁Hussain	-9.21308
▁mumkin	-9.21308
▁zail	-9.21308
▁rehta	-9.21313
ھ	-9.21386
▁aag	-9.21428
نو	-9.21582
▁naye	-9.2163
mi	-9.21851
ey	-9.21922
▁سا	-9.21969
شن	-9.22119
▁نوٹس	-9.22245
▁Shah	-9.22332
▁ح	-9.22388
▁ہوگئے	-9.22392
▁تصویر	-9.22436
▁راولپنڈی	-9.22508
▁thori	-9.22787
▁مقصد	-9.22787
▁aalam	-9.22808
▁toh	-9.22829
▁ataa	-9.22829
▁تعلقات	-9.2283
▁rehne	-9.22839
▁key	-9.22912
▁ہاتھ	-9.22931
▁سن	-9.22937
▁سیاست	-9.22952
یٹ	-9.22982
▁از	-9.23046
▁کردہ	-9.2329
▁رقم	-9.23385
▁بڑھ	-9.234
▁khail	-9.23401
▁ہندوستان	-9.23405
▁لکھا	-9.23409
▁کپتان	-9.23443
▁karam	-9.2349
es	-9.23532
▁link	-9.23598
▁بک	-9.23601
▁سکتی	-9.23725
▁ظاہر	-9.24018
▁پالیسی	-9.24102
در	-9.24213
▁کھیل	-9.24221
▁یقینی	-9.24279
▁تصدیق	-9.24299
▁theen	-9.24335
جی	-9.24429
▁uska	-9.24508
یشن	-9.24521
▁آزادی	-9.24602
▁اقوام	-9.24624
▁تحقیقات	-9.24656
as	-9.24709
▁ni	-9.24839
▁aksar	-9.24926
▁ق	-9.25077
▁دی۔	-9.25104
▁ایسی	-9.25141
▁wapas	-9.25201
▁انگلینڈ	-9.25218
▁جاں	-9.25269
▁سری	-9.25395
یس	-9.25503
▁tumhari	-9.25506
ki	-9.25543
▁جنوری	-9.25592
▁داخلہ	-9.25612
▁خاندان	-9.25651
ul	-9.25671
▁سائٹ	-9.25736
▁larioon	-9.25813
▁miss	-9.25814
سن	-9.25955
▁la	-9.26003
▁گردی	-9.26076
▁میری	-9.26087
▁رابطہ	-9.26121
▁nazam	-9.26131
th	-9.2624
▁j	-9.26286
▁رہ	-9.26364
▁تعمیر	-9.26393
▁خدمات	-9.26429
▁مقابلے	-9.26429
▁ثابت	-9.26739
▁آرمی	-9.26811
S	-9.2683
▁روزہ	-9.26895
▁dhaagay	-9.2705
▁چاہیے	-9.27177
▁daal	-9.27192
▁umdah	-9.27361
▁نتیجے	-9.27361
▁ghalti	-9.27361
▁madad	-9.27371
▁رنگ	-9.27519
▁sai	-9.27646
▁chahay	-9.2768
▁tujhe	-9.27782
▁as	-9.27933
▁maloomat	-9.28076
az	-9.28127
▁fi	-9.28217
▁oopar	-9.28302
▁qoum	-9.28302
▁جسے	-9.28319
▁تشدد	-9.28372
▁جاتے	-9.28383
▁hawa	-9.28412
▁چھوڑ	-9.28452
▁chahta	-9.28547
▁شخصیات	-9.28625
▁دہلی	-9.28628
▁حسن	-9.28683
آ	-9.28857
▁افغان	-9.28969
▁جاوید	-9.28984
▁زور	-9.29035
▁hissa	-9.29171
اؤ	-9.29198
▁mean	-9.29281
▁معلومات	-9.29286
▁kho	-9.29348
▁P	-9.29407
من	-9.29466
▁شدہ	-9.29578
▁لڑکی	-9.29694
▁انداز	-9.29777
▁مر	-9.29809
▁zurori	-9.29889
▁tig	-9.29901
▁abadi	-9.29919
▁شیئر	-9.29929
▁shairi	-9.30069
▁S	-9.30359
▁jahaaz	-9.30531
فر	-9.30571
oo	-9.30715
▁پوسٹ	-9.30729
▁Amrici	-9.30854
▁انھوں	-9.30884
▁اکتوبر	-9.30923
▁per	-9.30925
▁کلاس	-9.30965
de	-9.30967
▁داخل	-9.31049
▁maan	-9.3117
▁کنٹرول	-9.31177
▁نومبر	-9.31257
▁sara	-9.31304
▁تنظیم	-9.31316
▁ny	-9.31387
سر	-9.31441
▁an	-9.31463
▁pyar	-9.31485
▁منعقد	-9.31528
▁روک	-9.31538
▁د	-9.3154
▁آگے	-9.31575
▁میل	-9.31587
▁دنوں	-9.31812
▁tasaveer	-9.31828
▁یقین	-9.31834
▁موبائل	-9.31851
▁sukh	-9.32117
▁مو	-9.3213
▁angrezi	-9.32158
گی	-9.32223
▁اسکول	-9.32301
▁پیر	-9.32316
▁”	-9.32378
▁سلسلہ	-9.32482
▁چکی	-9.3253
▁مقام	-9.32545
M	-9.32584
▁khaas	-9.32741
▁aadmi	-9.32811
▁tarjuma	-9.32811
▁qarar	-9.32812
▁ورلڈ	-9.32814
▁متاثر	-9.32823
▁بنیاد	-9.32869
▁baton	-9.3288
▁اطلاعات	-9.32917
▁zabardast	-9.32967
▁بال	-9.32984
▁qisam	-9.33141
▁halaat	-9.33156
▁ڈائریکٹر	-9.33173
جو	-9.33192
▁افسران	-9.33194
▁وزیراعلیٰ	-9.33196
se	-9.33223
▁بر	-9.33237
I	-9.33245
▁22	-9.33277
▁blog	-9.33459
▁kijiyej	-9.33477
▁جیت	-9.33714
▁مشکل	-9.3381
▁پارلیمنٹ	-9.3382
▁تیز	-9.33875
▁ہوگئی	-9.34096
رہ	-9.34149
▁حضرت	-9.34175
▁جمعہ	-9.34289
▁کافی	-9.34351
▁منظوری	-9.34382
▁baal	-9.34449
کل	-9.34461
▁KI	-9.34476
▁jisay	-9.34485
▁news	-9.34487
▁گرد	-9.3459
▁واقعہ	-9.34666
v	-9.34726
▁نیا	-9.34773
▁آئندہ	-9.34844
▁ham	-9.34851
▁فروری	-9.34864
▁رواں	-9.34892
▁bacha	-9.34953
▁گاڑی	-9.34958
▁badal	-9.34992
▁jald	-9.35009
▁aan	-9.35027
ve	-9.35158
▁chaand	-9.35483
▁پیپلز	-9.35516
▁حالات	-9.35527
▁you	-9.35555
▁امام	-9.35565
▁saa	-9.3559
▁ز	-9.3566
han	-9.35699
▁pari	-9.35728
▁زرداری	-9.35822
▁امور	-9.35835
▁gayeen	-9.35971
▁تھیں	-9.36001
▁pegham	-9.36162
▁کس	-9.36164
▁مضبوط	-9.36174
▁intikhab	-9.36492
▁فیس	-9.36494
▁حمایت	-9.36503
▁bangal	-9.36503
▁ua	-9.36505
▁ay	-9.36509
سا	-9.3679
▁hua	-9.36805
▁aawaz	-9.36845
▁afraad	-9.36845
▁دفتر	-9.36845
▁bain	-9.37101
یم	-9.37135
▁ہوگیا	-9.37184
▁masroof	-9.37189
▁کرپشن	-9.37189
▁توجہ	-9.37238
▁behan	-9.3728
6	-9.37316
ظ	-9.3749
▁برآمد	-9.37503
▁داری	-9.3752
▁مشترکہ	-9.37534
جر	-9.37786
▁zindah	-9.379
▁para	-9.38088
▁چیت	-9.3809
▁hogayi	-9.38228
▁uski	-9.38234
▁برطانوی	-9.38264
▁mili	-9.38284
▁wow	-9.38307
0	-9.38388
رس	-9.38488
▁تحفظ	-9.38544
▁baghair	-9.38576
▁roshni	-9.38576
▁آسٹریلیا	-9.38599
▁جولائی	-9.38658
▁50	-9.38715
یل	-9.38774
وم	-9.38833
▁علم	-9.38842
ٹو	-9.38882
▁kash	-9.38916
▁dobarah	-9.38934
▁اہلکار	-9.39098
▁ہ	-9.39226
▁محفوظ	-9.39288
▁کررہے	-9.39352
▁جائزہ	-9.39371
یش	-9.39509
شا	-9.39556
▁سلسلے	-9.39628
▁Yah	-9.3964
▁مریم	-9.39709
▁sale	-9.39753
▁I	-9.39875
▁اسرائیلی	-9.3998
▁مشتمل	-9.39982
▁سنگھ	-9.39995
▁mukhtalif	-9.40336
▁tareen	-9.40351
▁ماہرین	-9.4036
▁رہنے	-9.40388
▁ہوئے۔	-9.40395
▁زمین	-9.40455
C	-9.40459
▁اطلاع	-9.40655
▁talluq	-9.40692
▁chuke	-9.40694
▁kaisi	-9.40705
▁برائے	-9.4071
▁اسپتال	-9.40862
مو	-9.4095
▁Imran	-9.41049
▁jabkay	-9.41049
▁Meer	-9.41052
▁darya	-9.41115
▁تھیں۔	-9.41253
▁پیغام	-9.41375
▁کھیلے	-9.41391
▁پو	-9.41433
▁چ	-9.41684
▁kitni	-9.41769
▁بجائے	-9.41776
▁poora	-9.41799
اری	-9.41862
▁لیں	-9.41884
▁utha	-9.41969
▁گرفتاری	-9.42002
▁مقرر	-9.42035
▁آگ	-9.42043
▁aankhh	-9.42128
▁haazir	-9.42128
▁kamaal	-9.42148
▁معروف	-9.42192
▁منظور	-9.42264
▁سٹی	-9.42365
▁lijiye	-9.42491
▁کاری	-9.42507
▁گورنر	-9.42535
▁بو	-9.42589
▁ی	-9.42634
▁رضا	-9.42641
▁ملا	-9.42673
▁تقسیم	-9.42854
▁aapko	-9.42855
▁اگست	-9.42905
▁دسمبر	-9.42914
▁rahe	-9.42919
▁ڈ	-9.42944
▁ڈے	-9.43038
▁shak	-9.43096
▁قیام	-9.43149
▁fikar	-9.43225
▁syed	-9.43238
▁مودی	-9.43242
▁ستمبر	-9.43295
▁بھائی	-9.43416
▁rakhay	-9.43479
▁assar	-9.43595
▁ملی	-9.43611
ray	-9.43669
نہ	-9.43861
▁کیسز	-9.43865
▁talaash	-9.43953
▁karkay	-9.43954
▁ورزی	-9.43963
▁پہلا	-9.43964
ron	-9.43973
▁صاحب	-9.43974
▁ابتدائی	-9.43977
وہ	-9.4402
▁dinon	-9.44099
▁نجی	-9.44104
▁shaya	-9.44138
▁نہیں۔	-9.44141
▁mah	-9.44217
▁آزاد	-9.443
▁ملوث	-9.44322
▁کابینہ	-9.44323
▁سیکیورٹی	-9.44335
▁abad	-9.44387
▁میاں	-9.44439
▁ملنے	-9.44442
▁yai	-9.44629
ہم	-9.44642
▁qabil	-9.44693
▁farmaya	-9.44711
وٹ	-9.44759
▁طالبان	-9.44761
▁2019	-9.44773
▁ہوگی۔	-9.44969
▁dekho	-9.4497
▁bus	-9.45027
▁اقبال	-9.45092
▁مرتبہ	-9.45096
id	-9.45152
gh	-9.45169
▁سفر	-9.45191
▁روس	-9.45241
▁اداکار	-9.45276
▁dosra	-9.45346
▁allag	-9.45437
▁ٹیکنالوجی	-9.45437
▁ہمیشہ	-9.45438
▁تحقیق	-9.45439
▁neend	-9.45439
▁tumahray	-9.45448
▁آبادی	-9.45604
▁شاہد	-9.45743
▁mu	-9.45748
▁pooch	-9.45767
▁خوش	-9.45789
▁کلب	-9.45805
▁ankhen	-9.45812
▁لندن	-9.45812
▁مصنوعات	-9.45814
▁برطانیہ	-9.4585
▁ڈپٹی	-9.45862
▁شمالی	-9.45881
▁بجے	-9.45889
▁پل	-9.45984
▁bas	-9.46158
▁kardiya	-9.46188
▁شہید	-9.46189
▁تنقید	-9.46205
▁انٹرنیشنل	-9.46216
▁ahal	-9.46572
▁اپیل	-9.46579
▁حالت	-9.4671
▁پ	-9.46824
▁deti	-9.46926
▁Khurram	-9.46944
▁dhaga	-9.46944
▁گر	-9.46956
▁baba	-9.46967
▁پرویز	-9.46974
▁hey	-9.47071
▁tra	-9.47156
▁جارہا	-9.47295
▁وسلم	-9.47324
▁بھٹو	-9.47503
▁Website	-9.47706
▁mashhoor	-9.47706
▁مسلسل	-9.47706
▁مشہور	-9.47706
یاں	-9.47709
▁مالی	-9.47977
پاکستان	-9.48037
yan	-9.48051
▁23	-9.48075
nt	-9.48078
▁تلاش	-9.48087
▁Iqbal	-9.48089
▁گیس	-9.48095
▁تبدیلی	-9.48128
▁100	-9.48131
▁banaya	-9.48284
▁ممکن	-9.48362
▁لیا۔	-9.48397
▁گ	-9.4842
▁daar	-9.48426
▁ارکان	-9.48475
▁رائے	-9.48526
▁musalman	-9.48646
دو	-9.48669
▁موت	-9.48716
وس	-9.48722
▁v	-9.48782
▁qubool	-9.4886
▁مجموعی	-9.4886
▁بنائے	-9.48871
مین	-9.4889
▁فارم	-9.48906
▁کیسے	-9.48927
▁Sa	-9.48955
▁jama	-9.49017
▁Ibn	-9.49247
▁phone	-9.49247
▁صبح	-9.49247
▁مذاکرات	-9.49247
▁شریک	-9.49262
▁لو	-9.49314
▁ایجنسی	-9.49487
▁کالج	-9.49619
▁alaikum	-9.49636
▁ashaar	-9.49636
▁معاشی	-9.49671
▁gayab	-9.49803
▁کیوں	-9.4993
دہ	-9.50068
▁jao	-9.50076
▁2018	-9.50155
ain	-9.50393
▁منتخب	-9.50419
▁سینئر	-9.50429
▁علاقہ	-9.50444
▁بھرپور	-9.50445
it	-9.50508
▁ووٹ	-9.50687
▁socha	-9.50696
us	-9.50725
▁waqay	-9.50813
▁nuqsaan	-9.50813
▁qaim	-9.50818
▁اعلی	-9.5082
▁insani	-9.5083
ce	-9.50863
▁تبدیل	-9.50924
▁27	-9.50965
▁فروغ	-9.51208
▁chuki	-9.51212
▁قائد	-9.5125
▁سماجی	-9.51308
▁sar	-9.51518
▁kitney	-9.51605
▁farq	-9.51612
P	-9.51633
▁ملازمین	-9.51635
zi	-9.51636
▁فورسز	-9.51675
▁dekhnay	-9.51787
▁hukum	-9.52003
▁jaissa	-9.52003
▁manzar	-9.52003
▁forum	-9.52009
▁qader	-9.52015
▁مند	-9.52071
▁z	-9.521
▁namaz	-9.52436
afaq	-9.52447
▁گھنٹے	-9.5245
رک	-9.5246
▁دیے	-9.52463
▁raye	-9.52487
گو	-9.52567
▁سلمان	-9.52808
▁ٹرمپ	-9.52831
▁28	-9.52961
▁me	-9.52973
▁parha	-9.5299
▁والد	-9.53089
▁saka	-9.53108
▁karni	-9.53166
▁waghera	-9.53208
▁منصوبہ	-9.53209
▁پڑھیں	-9.53289
مل	-9.53458
dar	-9.53468
▁امکان	-9.53582
▁2022	-9.53622
▁2021	-9.5369
▁C	-9.53726
▁wao	-9.53749
▁خون	-9.53754
بہ	-9.53792
▁جانا	-9.5384
▁kahani	-9.53922
▁بری	-9.53976
▁bat	-9.53989
▁نتائج	-9.5402
▁qatal	-9.54027
▁farmaiye	-9.54438
▁rabt	-9.5447
▁ji	-9.54501
▁تیل	-9.54507
gi	-9.54525
▁uskay	-9.54552
▁ek	-9.54572
▁گل	-9.54604
ia	-9.54662
▁zamana	-9.54776
▁ajeeb	-9.54838
▁bartari	-9.54838
▁سسٹم	-9.54838
▁قبول	-9.54839
▁kitna	-9.54843
▁خط	-9.54844
▁hogaye	-9.5492
▁امید	-9.54923
▁دینا	-9.54947
مہ	-9.55042
▁منٹ	-9.55085
wan	-9.55165
▁انجام	-9.5525
▁waris	-9.55252
▁میٹر	-9.55376
▁طبی	-9.55401
▁26	-9.55465
رن	-9.5547
▁barh	-9.55593
▁آؤٹ	-9.55662
▁ڈاؤن	-9.55663
▁Saood	-9.55667
▁khana	-9.55667
▁Lala	-9.55668
▁hawalay	-9.55695
▁اسرائیل	-9.5571
▁اتحاد	-9.558
▁فیصل	-9.55859
▁رپورٹر	-9.55925
▁apnay	-9.55928
lo	-9.55966
▁faisla	-9.55985
▁gussa	-9.56077
▁nizaam	-9.56077
▁معاہدے	-9.56077
▁behtareen	-9.56103
▁bachon	-9.56132
▁overs	-9.56136
▁lagti	-9.56166
جن	-9.56262
he	-9.56297
▁سکے	-9.56435
▁muslim	-9.56494
▁مسئلہ	-9.56518
▁بنیادی	-9.56617
um	-9.56659
ly	-9.56674
▁جارہی	-9.56921
▁تقریباً	-9.56923
▁گزار	-9.56941
▁post	-9.57002
▁chali	-9.57007
▁شمار	-9.57069
▁phool	-9.57258
▁فٹ	-9.5726
▁Fahim	-9.57333
▁Lahore	-9.57333
▁جدید	-9.57334
▁کردیا۔	-9.57353
▁اعتماد	-9.57372
▁مقامات	-9.57373
▁نیو	-9.57426
▁mazay	-9.57475
▁lena	-9.57594
▁مع	-9.57623
▁سروس	-9.57662
جاری	-9.57716
▁مقابلہ	-9.57755
▁US	-9.57792
▁ور	-9.57836
▁نیوزی	-9.57887
▁ayy	-9.57922
▁در	-9.57929
▁پیسے	-9.57941
T	-9.58044
▁عثمان	-9.58065
پور	-9.58093
▁دیئے	-9.5812
▁ضمانت	-9.58179
▁behas	-9.58185
▁کوئٹہ	-9.58209
▁مال	-9.58237
▁تعلیمی	-9.5831
▁jaoon	-9.58371
▁milta	-9.58419
▁maqam	-9.58551
▁peechay	-9.5861
▁ہمراہ	-9.58615
18	-9.58631
▁خ	-9.58684
▁ایشن	-9.58684
▁رہیں	-9.58731
▁silsila	-9.58939
▁متاثرہ	-9.5901
▁India	-9.59031
▁font	-9.59032
▁انعقاد	-9.59049
▁pal	-9.59078
▁چکا	-9.59081
▁سیل	-9.59117
▁rehti	-9.59149
▁دفاع	-9.59195
▁جج	-9.59437
▁sdfsd	-9.5946
▁نائب	-9.5946
▁دعویٰ	-9.59461
▁سرمایہ	-9.59467
▁بارش	-9.59593
▁khoon	-9.59702
وار	-9.59753
me	-9.59833
▁khaali	-9.59889
▁ghhor	-9.59891
▁hojaye	-9.59891
▁barish	-9.59906
▁اُن	-9.5993
▁بندی	-9.5995
▁too	-9.60221
▁صوبے	-9.60325
▁paanch	-9.60326
▁وطن	-9.60326
▁Gul	-9.60333
▁فائنل	-9.60349
▁حد	-9.60354
▁دس	-9.60399
▁تباہ	-9.60496
▁te	-9.60515
▁F	-9.60588
▁خانہ	-9.60625
▁میچوں	-9.60635
▁اچھی	-9.60759
▁hii	-9.60864
▁hee	-9.60865
ll	-9.60871
▁چل	-9.60892
▁امارات	-9.60928
qa	-9.61089
▁mizaaj	-9.61196
▁sdfdsf	-9.61196
▁اتھارٹی	-9.61196
▁معاملہ	-9.61196
▁tareeqa	-9.61246
▁بننے	-9.61386
▁40	-9.61396
▁taleem	-9.6146
▁فضل	-9.61539
جا	-9.61545
▁Ki	-9.61561
▁huzoor	-9.61634
▁moazrat	-9.61634
▁اضافے	-9.61634
▁جنہوں	-9.61644
▁banay	-9.61746
▁T	-9.61809
▁درجہ	-9.61936
▁qa	-9.61942
▁mutaliq	-9.61981
▁تیزی	-9.61984
▁qaisrani	-9.62075
▁فرانسیسی	-9.62075
▁انڈیا	-9.62115
▁line	-9.62139
▁ہوں۔	-9.62225
x	-9.62387
▁zulm	-9.62464
▁tareef	-9.62495
▁وکیل	-9.62518
▁wasallam	-9.62518
▁رہنماؤں	-9.62532
▁مقبوضہ	-9.62535
▁کھانے	-9.62551
▁shaamil	-9.62554
▁مشکلات	-9.6256
▁واقعات	-9.62606
▁parhnay	-9.62606
▁ناکام	-9.62625
▁ملتان	-9.6266
▁سول	-9.62668
▁امداد	-9.62698
▁میرا	-9.62711
▁چاہیے۔	-9.62782
▁w	-9.62844
▁باز	-9.62857
▁kaisa	-9.62884
▁مرکز	-9.62886
▁سعید	-9.62965
▁ڈال	-9.62972
▁likhnay	-9.63099
▁توڑ	-9.63128
8	-9.63138
▁واقعے	-9.63157
گل	-9.63172
▁Ta	-9.63211
▁سکول	-9.63223
▁zaat	-9.63248
aq	-9.63347
سو	-9.63394
▁آخر	-9.63394
▁manzil	-9.634
▁mulahiza	-9.63408
▁سہولت	-9.63408
انا	-9.6343
ذ	-9.63498
ٹن	-9.63579
▁agaya	-9.63614
▁bo	-9.63671
ٹس	-9.63717
▁تم	-9.63729
E	-9.63757
▁موسم	-9.63853
▁دھماکے	-9.63857
▁t	-9.63881
▁نکال	-9.64024
▁نکل	-9.64078
▁زبان	-9.64178
▁cricket	-9.64285
▁asdasd	-9.64307
▁mazmoon	-9.64307
▁mubarakbaad	-9.64307
▁roshan	-9.64307
▁مبینہ	-9.64307
▁طویل	-9.64311
▁رکھتے	-9.64334
▁الحق	-9.64335
▁niklay	-9.64383
▁پورے	-9.64438
▁darj	-9.64444
▁dushman	-9.6451
▁ہیڈ	-9.64584
▁بم	-9.64608
▁رکھی	-9.64609
▁dekhi	-9.64742
▁ikhtiyar	-9.6476
▁duayen	-9.6476
▁bahhar	-9.64765
▁فل	-9.64803
گر	-9.64867
▁kartay	-9.64951
▁امیدوار	-9.65036
منٹ	-9.65056
▁aata	-9.65059
▁اعزاز	-9.65182
▁arz	-9.65212
▁mauqa	-9.65214
▁rooh	-9.65214
▁siyasat	-9.65214
▁شرح	-9.6523
▁لیڈر	-9.65233
▁zamee	-9.65276
▁روکنے	-9.65277
▁سپر	-9.65404
▁چلا	-9.6545
▁bah	-9.65522
▁قیمتوں	-9.65566
▁zalim	-9.65671
▁masjid	-9.65671
▁nikaal	-9.65671
▁deegar	-9.65672
▁waalid	-9.65675
▁حیات	-9.65678
▁مظاہرہ	-9.65679
▁بیٹے	-9.65697
▁ٹریفک	-9.65707
▁حالیہ	-9.65729
یز	-9.65772
▁2020	-9.65791
▁مسلمانوں	-9.65816
▁roza	-9.65877
▁azad	-9.65888
▁n	-9.65896
▁غ	-9.65918
▁وا	-9.65971
▁ایپ	-9.65975
▁sub	-9.6602
▁ap	-9.66066
▁misaal	-9.66129
▁شعبہ	-9.66129
▁deewar	-9.66131
▁ماڈل	-9.66133
▁بجٹ	-9.66138
▁aasaan	-9.66144
▁گذشتہ	-9.66156
▁laa	-9.66287
▁M	-9.66307
▁ٹو	-9.66349
▁صحافی	-9.66423
▁حکومتی	-9.66488
“	-9.66514
▁ملے	-9.66557
▁ویکسین	-9.66581
▁mughal	-9.6659
▁taaza	-9.66623
▁لگانے	-9.66693
▁پہنچا	-9.66812
▁صلی	-9.66823
جس	-9.66844
▁تشکیل	-9.67053
▁مذمت	-9.67053
▁اچھا	-9.67055
▁شو	-9.67222
el	-9.67397
▁ہاؤس	-9.67469
▁میڈیکل	-9.67518
▁جاسکتا	-9.67529
▁rakhtay	-9.67592
▁امیر	-9.676
▁siwa	-9.67711
رے	-9.67757
▁اصل	-9.67823
▁Al	-9.67839
▁اتوار	-9.67986
▁wazahat	-9.67987
▁saddar	-9.6799
▁out	-9.68079
▁ہوئی۔	-9.68163
▁آگاہ	-9.68202
تو	-9.68367
▁رکھ	-9.6839
▁mauzo	-9.68455
▁saalgirah	-9.68455
▁فواد	-9.68459
▁pathar	-9.6846
▁دیکھیے	-9.68486
▁shakal	-9.68496
▁کہتے	-9.68562
سٹر	-9.68577
▁اخبار	-9.68895
▁score	-9.68927
▁tadaad	-9.68927
▁مثبت	-9.68927
▁ijazat	-9.68935
▁رشید	-9.68938
▁کرونا	-9.68948
▁ذکر	-9.69021
▁rab	-9.6903
▁مذہبی	-9.6904
▁سوچ	-9.69169
▁دورے	-9.69224
▁دائر	-9.69297
▁rasta	-9.69326
O	-9.69372
▁Na	-9.69388
▁میدان	-9.69403
کھ	-9.69455
▁انکار	-9.69472
▁بلا	-9.69527
▁سینٹ	-9.69617
▁غلط	-9.69629
▁مس	-9.6966
▁لگ	-9.69757
▁mehsoos	-9.69877
▁ادائیگی	-9.69877
▁biwi	-9.69879
کار	-9.69886
▁منصوبے	-9.69894
▁News	-9.69933
ایا	-9.69937
▁را	-9.69946
▁بیٹی	-9.70068
▁کون	-9.7012
▁raaz	-9.702
vi	-9.7024
▁ڈر	-9.70297
▁آواز	-9.70302
▁معلوم	-9.70354
tar	-9.70355
▁darmain	-9.70355
▁خیبر	-9.70391
▁دوست	-9.70622
رین	-9.70802
▁انکشاف	-9.70804
▁shumaar	-9.70836
▁siyasi	-9.70836
▁ذریعہ	-9.70836
▁بلاول	-9.70853
▁zor	-9.70854
▁ہمارا	-9.70903
▁مغربی	-9.70924
▁nae	-9.70976
▁arabi	-9.70999
▁رکھے	-9.71051
تر	-9.71053
▁نامی	-9.71073
▁پورا	-9.71073
▁kami	-9.71125
▁noor	-9.71173
▁khat	-9.7118
▁chhootey	-9.71319
▁ustaad	-9.71319
▁معاملات	-9.71319
▁haae	-9.7132
▁یہی	-9.71328
▁us	-9.71435
▁noon	-9.71464
▁betay	-9.71468
▁daari	-9.71546
war	-9.71556
▁کتاب	-9.71613
▁fouj	-9.71632
وز	-9.71716
▁samandar	-9.71806
▁chalta	-9.71851
مر	-9.71986
▁paye	-9.72062
▁وکٹ	-9.72114
▁میر	-9.72231
▁بلوچ	-9.7229
▁mehnat	-9.72293
▁دارالحکومت	-9.72293
▁aqal	-9.72293
▁پیچھے	-9.72293
▁انھیں	-9.72293
▁شاندار	-9.72299
▁lainay	-9.7231
▁کرانے	-9.72348
ویں	-9.72352
▁baithy	-9.72381
▁awam	-9.72387
▁fa	-9.7257
▁ہار	-9.72587
▁گئیں	-9.7259
ائیں	-9.72607
▁kirdaar	-9.72783
▁آفیسر	-9.72783
▁سلامتی	-9.72797
▁jannat	-9.728
▁غور	-9.72867
▁اہلکاروں	-9.73045
lay	-9.73091
▁دیتا	-9.73117
ایک	-9.7321
N	-9.73222
▁naseeb	-9.73275
▁حج	-9.73289
▁مقدمات	-9.73301
▁یونین	-9.73302
▁ڈاٹ	-9.73361
▁ٹرین	-9.73366
▁ain	-9.73588
bi	-9.73636
▁G	-9.73661
▁فراہمی	-9.73791
▁kahi	-9.73813
▁chup	-9.7385
fi	-9.74049
▁الم	-9.74072
ran	-9.74075
▁azaadi	-9.74268
▁izzat	-9.74268
▁عدم	-9.74268
▁اقدام	-9.74275
▁دیکھنے	-9.74353
▁kai	-9.74357
▁aman	-9.7436
▁chahtay	-9.74415
▁بدھ	-9.74417
▁zuba	-9.74572
▁dekhe	-9.74654
▁فلسطینی	-9.74765
▁aaghaz	-9.74768
▁bijli	-9.74768
▁بعض	-9.74768
▁2013	-9.74779
▁herat	-9.74779
▁مواد	-9.74783
▁amain	-9.74793
▁کرلی	-9.74797
com	-9.74802
▁سامان	-9.74813
▁لگایا	-9.74832
▁کرکٹر	-9.74837
▁چیز	-9.75045
▁ہاتھوں	-9.75079
▁gh	-9.75082
ں	-9.75128
ut	-9.75233
▁خزانہ	-9.7527
▁ٹاؤن	-9.75271
▁sayarah	-9.75274
▁chain	-9.75302
کٹ	-9.7531
▁انسان	-9.75312
▁حملوں	-9.75318
▁haar	-9.75355
▁kaa	-9.75357
▁جسم	-9.75385
▁tang	-9.7539
▁doston	-9.75456
▁ڈیٹا	-9.75493
▁baith	-9.75558
R	-9.75598
▁براہ	-9.75613
▁ٹیلی	-9.75638
▁پڑ	-9.75701
▁عباس	-9.7571
▁طریقہ	-9.75775
▁مسترد	-9.75775
▁ajab	-9.75782
▁31	-9.75787
▁sher	-9.75834
▁درست	-9.75898
▁our	-9.75935
▁انتخاب	-9.75984
ہو	-9.75989
▁آئین	-9.76209
▁دیش	-9.76229
▁وفد	-9.76283
▁Azam	-9.76291
▁خواجہ	-9.7631
▁کارکنوں	-9.76371
▁یوم	-9.76464
▁قدر	-9.76509
▁jism	-9.76544
▁آفس	-9.76604
▁امپائر	-9.76626
▁Mumbai	-9.76793
▁guftagu	-9.76793
▁اراکین	-9.76793
▁فائدہ	-9.76793
▁bataya	-9.76793
▁izafah	-9.76801
▁khol	-9.7685
▁یعنی	-9.7685
ke	-9.76888
▁nabi	-9.76902
▁je	-9.76945
▁کاروبار	-9.76999
▁ترک	-9.77095
▁arab	-9.77134
▁Ka	-9.77146
▁l	-9.7719
▁poanch	-9.77306
▁imam	-9.77318
▁laita	-9.77323
▁طے	-9.77376
▁نیٹ	-9.77381
▁موٹر	-9.77459
▁نسل	-9.77487
▁bola	-9.775
▁بلے	-9.7756
ئل	-9.77579
hr	-9.77605
▁rakhna	-9.77734
▁کمپنیوں	-9.77745
▁پوائنٹ	-9.77759
▁Ma	-9.77794
▁dukh	-9.77817
▁Faiz	-9.77822
▁قریشی	-9.77822
▁ہفتہ	-9.77822
▁hathon	-9.77822
▁محبت	-9.77843
▁آفریدی	-9.77845
▁شپ	-9.77852
▁رمضان	-9.77857
نک	-9.77868
▁andaza	-9.78052
▁ترکی	-9.7806
ڈو	-9.78251
▁taliban	-9.78344
▁احتساب	-9.78366
▁apkee	-9.78378
▁rakhnay	-9.78435
▁پارک	-9.78446
▁عامر	-9.78471
19	-9.78487
▁الدین	-9.78532
اف	-9.78539
آئی	-9.78595
ein	-9.7864
گا	-9.78666
▁نگار	-9.78887
▁باقی	-9.79363
▁افریقہ	-9.79384
▁watan	-9.79392
▁ایوان	-9.79405
▁الزامات	-9.79448
ate	-9.79452
▁ویسٹ	-9.79531
▁29	-9.79586
▁لوٹ	-9.79605
▁haalat	-9.79649
▁party	-9.79665
▁پڑے	-9.79679
10	-9.79848
▁سیٹ	-9.79848
▁likhi	-9.79899
▁judda	-9.7991
▁mumalik	-9.7991
▁طریقے	-9.7991
▁ہائیکورٹ	-9.7991
▁اننگز	-9.79912
▁ریلوے	-9.79958
▁مریضوں	-9.80077
ؤں	-9.801
▁آل	-9.80163
▁بابر	-9.80169
▁بٹ	-9.80177
زی	-9.80193
▁sabr	-9.80207
▁rah	-9.80247
▁Sooraj	-9.80439
▁تصاویر	-9.80439
▁رابطے	-9.80439
▁Facebook	-9.8044
▁rakhen	-9.80442
▁صاف	-9.80445
▁جعلی	-9.80446
▁پیدائشیں	-9.80475
▁سمجھ	-9.80916
▁WDJ	-9.80971
▁کانگریس	-9.80971
▁مستقبل	-9.80972
▁شوہر	-9.80977
ڑا	-9.80985
▁load	-9.80991
▁جمعرات	-9.81024
50	-9.81311
▁سل	-9.81352
▁مت	-9.81433
▁zehan	-9.81506
▁بطور	-9.81506
▁سکیورٹی	-9.81506
▁برقرار	-9.81507
▁اگلے	-9.81509
▁toot	-9.81517
▁میچز	-9.81547
▁عہدے	-9.81556
▁likhte	-9.81569
▁خیالات	-9.81609
▁پن	-9.81646
▁yah	-9.81986
▁...	-9.82037
▁click	-9.82044
▁saken	-9.82044
▁douran	-9.82054
▁منگل	-9.82058
▁ووڈ	-9.82095
▁تھانہ	-9.82218
▁bin	-9.82235
▁صدارت	-9.82321
▁NAI	-9.82584
▁feesad	-9.82584
▁video	-9.82584
ub	-9.82724
▁fun	-9.82785
او	-9.82804
aj	-9.82817
▁lab	-9.82838
▁بد	-9.82843
▁شناخت	-9.82861
اللہ	-9.82877
▁سات	-9.82941
▁لنکا	-9.83036
وک	-9.83087
▁uncle	-9.83128
▁حیثیت	-9.83128
▁برادری	-9.83128
▁zila	-9.83128
▁time	-9.83132
▁ایسوسی	-9.83156
aa	-9.83177
▁jaiye	-9.83187
▁عملی	-9.83228
▁ورک	-9.83263
▁re	-9.83302
▁شکل	-9.83304
سل	-9.83341
▁paon	-9.83341
▁mana	-9.83383
▁قید	-9.83405
▁الگ	-9.83412
▁خرید	-9.83468
▁nikla	-9.83582
یک	-9.83655
▁maqsad	-9.83674
▁media	-9.83674
▁sahet	-9.83674
▁اشرف	-9.83674
▁اسٹیشن	-9.83675
▁اختر	-9.83675
▁بیٹھ	-9.83682
▁maal	-9.83688
▁ٹوئٹر	-9.83719
▁farma	-9.83754
▁تیاری	-9.83796
har	-9.83845
▁sonay	-9.83872
▁ط	-9.83913
bar	-9.83914
▁افسر	-9.83983
ton	-9.8399
▁kee	-9.84026
پا	-9.84208
▁azeem	-9.84224
▁qabal	-9.84224
▁qayamat	-9.84224
▁safar	-9.84235
▁likhna	-9.84244
▁miyan	-9.84246
▁choti	-9.84249
ٹل	-9.84275
▁taala	-9.84301
▁film	-9.84451
▁گردوں	-9.84529
▁for	-9.84669
▁r	-9.84762
▁tabeer	-9.84776
▁zimma	-9.84776
▁پختونخوا	-9.84776
▁imaan	-9.84779
▁منی	-9.8478
▁خوشی	-9.84909
این	-9.84986
▁اک	-9.84999
▁اُس	-9.85038
▁طاقت	-9.85118
قی	-9.85134
▁asd	-9.85149
▁بازی	-9.85154
▁ایوارڈ	-9.85215
▁اکاؤنٹ	-9.85234
▁آمد	-9.85326
▁چاہئے	-9.85326
▁guzashta	-9.85332
▁اختتام	-9.85332
▁انٹرویو	-9.85332
▁KA	-9.85334
▁دیر	-9.85346
▁E	-9.85348
▁عظیم	-9.85382
▁گول	-9.85463
▁رہائشی	-9.85512
▁دستیاب	-9.85628
▁بیماری	-9.85794
▁neechay	-9.8589
▁rasool	-9.85891
▁share	-9.85901
▁.....	-9.85903
▁فرسٹ	-9.85918
▁ایئر	-9.85992
چی	-9.86191
▁سین	-9.86203
▁بول	-9.86325
shi	-9.86409
▁daftar	-9.86452
▁tabsaray	-9.86452
▁دعوت	-9.86452
▁مملکت	-9.86452
▁پتہ	-9.86508
▁at	-9.86536
بو	-9.86603
▁on	-9.86648
▁jala	-9.86654
▁Ja	-9.86906
از	-9.86963
▁Aziz	-9.87017
▁SAY	-9.87017
▁daikhta	-9.87017
▁تجویز	-9.87017
▁ممبئی	-9.87017
▁آئیں	-9.87019
▁کارڈ	-9.87037
▁mood	-9.87039
▁nayaab	-9.87042
▁ادارہ	-9.87056
▁ڈسٹرکٹ	-9.87083
▁beta	-9.87089
▁ایرانی	-9.8715
▁bach	-9.87239
▁milnay	-9.87264
▁yee	-9.87274
دل	-9.87297
▁phail	-9.87493
▁راہ	-9.87603
▁رسول	-9.87607
▁bajaye	-9.87609
▁دوسرا	-9.87619
▁jeet	-9.87641
چھ	-9.87688
▁ri	-9.87745
ati	-9.87863
▁عالم	-9.87919
فا	-9.8792
B	-9.88014
▁معیشت	-9.88157
▁dikhayi	-9.88157
▁Saeed	-9.8816
▁taiz	-9.88161
▁کاروائی	-9.88167
▁aurat	-9.88172
▁آٹھ	-9.88174
▁بڑھانے	-9.88218
▁adab	-9.88253
▁بیوی	-9.88304
rah	-9.88306
شت	-9.8841
▁baaz	-9.8855
▁sahab	-9.8864
▁تعینات	-9.8873
▁sakun	-9.88732
▁سفیر	-9.88732
▁پار	-9.88734
▁دعا	-9.88773
▁کیو	-9.88854
▁راست	-9.88947
▁لاک	-9.88987
aan	-9.89019
▁karain	-9.89076
▁gana	-9.89101
▁گھروں	-9.89103
▁چیلنج	-9.89193
▁درآمد	-9.89279
▁kamyaab	-9.8931
▁masail	-9.8931
▁elaan	-9.8931
▁sitam	-9.8931
▁shareef	-9.89312
▁قبضہ	-9.89318
▁سینیٹ	-9.89324
▁علامہ	-9.89344
▁منشیات	-9.89361
fa	-9.89415
▁دیں۔	-9.89478
ہی	-9.89591
اء	-9.8969
▁نوجوانوں	-9.89712
اً	-9.89753
▁ahbaab	-9.89891
▁frazz	-9.89891
▁wazeer	-9.89891
▁مذکورہ	-9.89953
ٹری	-9.90009
lat	-9.90041
▁چو	-9.90108
rh	-9.90144
▁مسلمان	-9.90164
D	-9.90219
ari	-9.90254
▁اسد	-9.90264
▁کش	-9.90286
ڑے	-9.90333
▁dijiye	-9.90476
▁سائیکل	-9.90476
▁duniya	-9.90476
▁lout	-9.90481
▁talab	-9.90491
▁qaid	-9.90493
U	-9.90515
▁چوری	-9.90667
▁روم	-9.90693
iyat	-9.90751
▁شیر	-9.90755
▁مریض	-9.90952
▁rakhta	-9.90978
▁naik	-9.91003
tr	-9.9105
▁آسان	-9.91058
▁janoobi	-9.91064
▁توانائی	-9.91064
▁مہنگائی	-9.9107
▁gum	-9.91079
▁sachhi	-9.91104
▁guzray	-9.91138
lon	-9.91157
▁یورپی	-9.91298
▁qanoon	-9.91482
اک	-9.91492
os	-9.91496
ry	-9.91616
▁garmi	-9.91643
▁qismat	-9.91656
▁تبادلہ	-9.91656
▁hisaab	-9.91656
▁کھڑے	-9.91659
▁بہتری	-9.91675
▁ammi	-9.91694
▁seh	-9.91709
ہے۔	-9.91729
▁کرسکتے	-9.91733
▁رانا	-9.91755
▁راجہ	-9.91768
▁ہو۔	-9.91827
▁سرحد	-9.91914
▁jhoot	-9.91981
▁دشمن	-9.92088
▁کوچ	-9.92117
▁لہذا	-9.92251
▁ریاض	-9.92251
▁شدت	-9.92251
▁انڈسٹری	-9.92251
▁وائرل	-9.92253
▁khilaaf	-9.92254
▁رساں	-9.92274
▁اتفاق	-9.92282
▁خیبرپختونخوا	-9.92308
ہزار	-9.92314
▁والدین	-9.92335
▁شی	-9.92486
شر	-9.92497
▁مد	-9.92666
▁parta	-9.92727
ای	-9.9275
▁بالی	-9.92806
▁punjabi	-9.9285
▁بنگلہ	-9.9285
▁naraaz	-9.9285
▁kareem	-9.92852
▁daad	-9.92896
▁جموں	-9.92989
▁pas	-9.93025
▁دین	-9.93041
▁انتخابی	-9.93163
▁تربیت	-9.93188
ge	-9.93205
کم	-9.93225
ہر	-9.93311
▁مدت	-9.93343
▁lamha	-9.9336
ol	-9.93379
▁gali	-9.93451
▁قوانین	-9.93452
▁ہیلتھ	-9.93452
▁خطرہ	-9.93465
▁door	-9.93483
▁وار	-9.935
▁hu	-9.93575
▁1,	-9.93618
مار	-9.93651
▁baraye	-9.9385
▁گھ	-9.93888
دے	-9.93935
▁rukh	-9.9394
▁kiijiye	-9.94058
▁zair	-9.94058
▁qaumi	-9.94081
▁uth	-9.94161
▁Hai	-9.94346
وال	-9.94366
▁ٹیموں	-9.94454
▁beh	-9.94497
▁khwaja	-9.94668
▁محسوس	-9.94668
▁wiki	-9.94672
▁ڈویژن	-9.94693
▁mazaq	-9.94705
▁hayaat	-9.94712
▁کررہی	-9.94772
▁mard	-9.94774
▁ضلعی	-9.94853
▁bol	-9.94994
▁تفتیش	-9.95015
▁رہے۔	-9.95063
▁payi	-9.95085
▁می	-9.95127
▁سہ	-9.9513
▁ص	-9.95179
kar	-9.95203
▁بازار	-9.9523
▁Punjab	-9.95282
▁ehsas	-9.95282
▁hadees	-9.95282
▁khawateen	-9.95282
▁wazeh	-9.95282
▁شعبے	-9.95282
▁پناہ	-9.95286
▁laakh	-9.95299
▁روانہ	-9.95309
ؤ	-9.95324
▁hy	-9.95526
▁lo	-9.9558
کن	-9.9559
▁معیار	-9.95634
▁ناصر	-9.95738
▁hun	-9.95879
▁bujey	-9.95899
▁fehrist	-9.95899
▁khidmat	-9.95899
▁مثال	-9.95899
▁انسداد	-9.95944
پیدائش	-9.95979
▁سربراہی	-9.95996
▁naz	-9.96009
▁ذاتی	-9.96014
▁راج	-9.96096
▁مشرقی	-9.96159
یڈ	-9.96253
▁nama	-9.96296
▁ں	-9.96303
▁خراب	-9.96365
▁جرم	-9.96391
▁بچی	-9.96391
▁ریاستی	-9.96404
▁jumla	-9.96428
ic	-9.96449
▁mahswara	-9.9652
▁mlitay	-9.9652
▁plzzzz	-9.9652
▁نافذ	-9.9652
▁لانے	-9.96691
▁app	-9.9685
▁معطل	-9.96877
▁khamosh	-9.96972
▁ملین	-9.96983
▁jan	-9.96997
▁zar	-9.97126
▁tavajja	-9.97145
▁الرحمان	-9.97145
▁اہتمام	-9.97145
▁موقف	-9.97145
▁rehmat	-9.97146
▁تعالیٰ	-9.97146
▁غزہ	-9.97149
▁mand	-9.97166
▁صوبہ	-9.97189
▁شکریہ	-9.97203
▁اہمیت	-9.97224
▁پیشہ	-9.97231
▁mara	-9.9724
▁saaf	-9.97255
▁عطا	-9.97371
وری	-9.97407
ڑی	-9.97414
▁it	-9.97449
ڈر	-9.97513
▁by	-9.97553
▁بنے	-9.97557
ود	-9.97559
▁اول	-9.97573
▁صلاحیت	-9.97591
tin	-9.97671
ید	-9.97692
▁mazhab	-9.9775
▁خفیہ	-9.97774
▁زیادتی	-9.97774
▁حراست	-9.97775
▁قابو	-9.97776
▁نیچے	-9.97776
▁ملتوی	-9.97778
▁اسٹیٹ	-9.97788
▁سینٹر	-9.9792
▁واپسی	-9.97933
ائن	-9.97948
▁لوڈ	-9.9802
ملک	-9.98049
▁پہنچے	-9.98072
ho	-9.98116
▁Ra	-9.98216
سال	-9.98258
▁مصروف	-9.98405
▁ہندوستانی	-9.98406
▁chhutti	-9.98407
▁daagh	-9.98407
▁muhabbat	-9.98407
▁حیدرآباد	-9.98408
▁2023	-9.98421
▁parda	-9.98425
▁ٹ	-9.98431
▁aagai	-9.98434
▁ہوجائے	-9.98455
▁غلام	-9.9846
▁dikha	-9.98476
▁عید	-9.98559
▁کلو	-9.98565
▁banaye	-9.98609
▁ہوگئے۔	-9.98644
▁کرنی	-9.98652
iye	-9.98724
▁دیکھیں	-9.98734
▁پائے	-9.98807
man	-9.98816
▁jatay	-9.98862
▁جماعتوں	-9.98891
▁ray	-9.98914
▁bohot	-9.99044
▁dainee	-9.99056
▁پلیٹ	-9.99061
▁بحران	-9.99065
▁انٹر	-9.99066
▁qeemat	-9.99109
ish	-9.99125
▁paar	-9.9915
▁inkaar	-9.99167
son	-9.992
ood	-9.99272
▁خوبصورت	-9.9933
▁شہروں	-9.99578
▁Urdu	-9.99685
▁faateh	-9.99685
▁lutaf	-9.99685
▁mohsin	-9.99685
▁کیلیے	-9.99691
▁خدا	-9.9973
▁پروفیسر	-9.9976
▁بھ	-9.99835
▁کوریا	-9.99847
▁ڈرائیور	-9.9986
ٹھ	-9.99891
▁سڑک	-10.0009
▁معاون	-10.0012
▁کاروں	-10.0022
om	-10.0023
▁کیمپ	-10.0024
▁وبا	-10.0031
▁کہیں	-10.0032
▁November	-10.0033
▁chairag	-10.0033
▁aisha	-10.0036
▁aglay	-10.0037
▁اقتدار	-10.0039
ji	-10.004
▁goya	-10.0041
▁Bar	-10.0041
H	-10.0041
▁گاڑیوں	-10.0069
▁کھو	-10.0069
im	-10.0085
▁hosh	-10.0086
▁پال	-10.0087
rd	-10.0087
▁nigah	-10.009
▁اکثر	-10.0096
▁larki	-10.0096
▁Albata	-10.0098
▁aasmaa	-10.0098
▁from	-10.0098
▁مجبور	-10.0098
▁موصول	-10.0098
▁aadat	-10.0098
▁قرآن	-10.0102
فت	-10.0105
▁آتے	-10.0114
▁In	-10.0118
▁dekhna	-10.0119
ہا	-10.0128
▁بیرون	-10.0138
▁پولیو	-10.0156
▁ایکشن	-10.016
▁احتجاجی	-10.0163
▁channel	-10.0163
▁taraqqi	-10.0163
▁شائع	-10.0163
▁مقدار	-10.0163
▁پیپلزپارٹی	-10.0163
▁واشنگٹن	-10.0163
▁razi	-10.0165
▁مہمان	-10.0167
▁cha	-10.0169
▁غریب	-10.0169
▁اہلیہ	-10.0171
▁سینیٹر	-10.0172
▁hans	-10.0184
▁صحافیوں	-10.019
▁ہندو	-10.0196
وش	-10.0207
▁دھ	-10.021
▁روسی	-10.0223
▁wafa	-10.0226
▁Google	-10.0229
▁Hafiz	-10.0229
▁گلگت	-10.0229
▁فتح	-10.0229
▁متعارف	-10.0229
▁garam	-10.0229
▁qalam	-10.0229
▁اثر	-10.023
▁اساتذہ	-10.0231
if	-10.0232
▁اٹھا	-10.0233
▁فورس	-10.0235
نیوز	-10.0245
▁چیک	-10.0246
▁بتا	-10.0246
▁بحالی	-10.0253
▁پاور	-10.0255
کیا	-10.0264
▁jaanta	-10.0265
▁بڑھا	-10.0271
▁سبب	-10.0271
▁روشنی	-10.0273
▁over	-10.0293
▁himmat	-10.0295
▁mutfiq	-10.0295
▁سہولیات	-10.0295
▁معاہدہ	-10.0295
▁نمایاں	-10.0296
▁دبئی	-10.0296
▁اقتصادی	-10.0297
▁چھوٹے	-10.0297
▁chehray	-10.0301
▁ruk	-10.0302
▁خطے	-10.0307
▁92	-10.0324
▁کہہ	-10.0327
▁baras	-10.0331
▁بنائی	-10.0336
عی	-10.0339
لز	-10.0341
▁بلند	-10.0345
▁kisay	-10.0346
▁رخ	-10.0359
▁صنعت	-10.0359
▁60	-10.0359
▁mandarja	-10.0362
▁shadeed	-10.0362
▁barabar	-10.0364
▁چائے	-10.0366
▁نوٹ	-10.0372
▁پھیل	-10.0373
kha	-10.0378
▁sehar	-10.0391
▁کمار	-10.0392
▁شک	-10.0398
▁رفتار	-10.0399
سک	-10.0403
▁تفصیل	-10.0408
▁khushi	-10.041
▁بہن	-10.0415
ft	-10.0417
▁بھیج	-10.0418
▁فضائی	-10.0419
▁nateeja	-10.042
▁tafseel	-10.0428
▁bachpan	-10.0429
▁khwahish	-10.0429
▁حادثے	-10.0429
▁خدمت	-10.0429
▁سیکورٹی	-10.0429
▁عرصے	-10.0429
▁baais	-10.043
▁insaaf	-10.0431
▁farmaen	-10.0432
▁khatir	-10.0432
▁land	-10.0433
▁برابر	-10.0435
▁silsilay	-10.0444
▁اوپر	-10.0444
▁bees	-10.0445
چر	-10.045
نج	-10.0451
▁sabhi	-10.0461
▁aao	-10.0464
▁net	-10.0472
ئیں	-10.0473
▁سکیں	-10.0478
▁buland	-10.0479
▁q	-10.0484
▁khula	-10.0487
▁khil	-10.0493
▁ایشیا	-10.0495
▁KO	-10.0496
▁کھول	-10.0496
▁Mahmood	-10.0497
▁Sheikh	-10.0497
▁dhoop	-10.0497
▁masoom	-10.0497
▁sdraldin	-10.0497
▁احسن	-10.0498
▁تسلیم	-10.0498
▁بھاری	-10.05
▁aaina	-10.05
▁توسیع	-10.0501
▁طلباء	-10.0503
▁aakar	-10.0503
▁are	-10.0509
پو	-10.0515
cha	-10.053
ali	-10.0538
نت	-10.0552
▁arsa	-10.0552
▁khata	-10.0554
▁مخالف	-10.0555
▁گزر	-10.0556
▁baz	-10.0561
▁bhaag	-10.0565
▁office	-10.0565
▁ایکسپریس	-10.0565
▁hosla	-10.0565
▁مظاہرین	-10.0565
▁سکے۔	-10.0585
▁فرار	-10.0589
▁سونے	-10.0589
▁معمول	-10.0607
ga	-10.0623
▁ansoo	-10.0633
▁mulaqaat	-10.0633
▁nabeel	-10.0633
▁حصے	-10.0633
▁شکایت	-10.0633
▁ماضی	-10.0633
▁programme	-10.0633
▁احکامات	-10.0634
▁السلام	-10.0634
▁tauba	-10.0634
▁مشیر	-10.0634
▁misraa	-10.0635
▁hamza	-10.0636
▁rehna	-10.0643
▁ریلیز	-10.0644
▁نور	-10.0651
▁کھل	-10.0651
▁جرمنی	-10.0652
▁اینٹی	-10.0652
دھ	-10.0655
▁dili	-10.0656
▁pur	-10.0661
12	-10.0667
▁ہزاروں	-10.0674
▁darja	-10.0678
▁shama	-10.0678
▁سوار	-10.0689
▁lahoo	-10.0702
▁تعریف	-10.0702
▁انگلش	-10.0702
▁محروم	-10.0702
▁وغیرہ	-10.0702
دیا	-10.0702
▁jaisi	-10.0703
▁tabdeel	-10.0707
ٰ	-10.0708
▁دہ	-10.0711
▁پبلک	-10.0714
▁aya	-10.0715
et	-10.0723
▁Kar	-10.0724
▁gird	-10.0725
▁ماں	-10.0728
▁ولی	-10.0733
نز	-10.0741
▁Mu	-10.0746
تھا	-10.0751
تہ	-10.0752
▁ail	-10.0755
لم	-10.0756
▁safha	-10.0758
▁Ha	-10.077
▁مبارک	-10.0771
▁darkhwast	-10.0772
▁baap	-10.0772
▁خالد	-10.0772
▁نامعلوم	-10.0772
▁dasht	-10.0772
▁بیٹنگ	-10.0774
اتی	-10.0777
▁ڈار	-10.0777
▁آتی	-10.0789
شہ	-10.0796
aam	-10.0798
▁mad	-10.0798
▁معمولی	-10.0799
▁گرم	-10.08
▁رہائش	-10.0819
▁kharab	-10.082
▁ایپل	-10.083
▁chhota	-10.0842
▁injaam	-10.0842
▁kamyabi	-10.0842
▁tajurbah	-10.0842
▁tarha	-10.0842
▁tasveer	-10.0842
▁nites	-10.0842
▁layte	-10.0843
یات	-10.0844
▁saboot	-10.0845
▁رکھتا	-10.0846
▁kahoon	-10.0849
▁pyare	-10.0858
gar	-10.0859
▁ار	-10.0865
▁mas	-10.0873
ty	-10.0882
▁saya	-10.0883
▁مانگ	-10.0885
بھی	-10.089
▁جہاز	-10.0893
▁تب	-10.0895
۔انہوں	-10.0896
▁مسافر	-10.0897
▁aayat	-10.0901
▁waqea	-10.0906
▁khusoosi	-10.0912
▁minute	-10.0912
▁جدوجہد	-10.0912
▁خوراک	-10.0912
▁ہدف	-10.0913
▁matti	-10.0914
▁حقیقت	-10.0914
▁ہوسکتا	-10.0915
▁لگتا	-10.0916
▁chala	-10.0926
▁لیتے	-10.0928
▁سالانہ	-10.093
ter	-10.0935
▁شہزاد	-10.0945
▁مفت	-10.096
▁dh	-10.0962
va	-10.0965
▁دکھائی	-10.0972
▁پڑا	-10.0976
ion	-10.098
▁aitraaz	-10.0983
▁muqaddas	-10.0983
▁شعبوں	-10.0983
▁zain	-10.0983
▁سیزن	-10.0983
▁2014	-10.0985
▁پیداوار	-10.0986
▁گاؤں	-10.099
▁سازش	-10.0999
wat	-10.1002
▁شب	-10.1006
یں۔	-10.1009
▁daant	-10.1016
الی	-10.1019
▁pyari	-10.1021
▁سالوں	-10.1022
▁کرایا	-10.1023
▁sakht	-10.1028
ڈن	-10.1031
▁bh	-10.1036
گن	-10.1036
▁کیساتھ	-10.1036
▁bil	-10.1049
▁hazraat	-10.1054
▁بلتستان	-10.1054
▁sehraa	-10.1054
▁shakhsiyat	-10.1056
▁ترقیاتی	-10.1056
▁betha	-10.1059
وب	-10.107
▁tanhai	-10.107
▁خیر	-10.1073
▁hh	-10.108
▁unwan	-10.1083
▁behna	-10.109
▁Ho	-10.1097
مان	-10.1105
▁چینل	-10.1109
▁unhi	-10.1112
L	-10.1114
▁بچ	-10.1119
▁wada	-10.1123
▁Africa	-10.1126
▁mobile	-10.1126
▁tasawwur	-10.1126
▁اعداد	-10.1126
▁الفاظ	-10.1126
▁paiir	-10.1126
▁taamer	-10.1126
▁حزب	-10.1126
▁یافتہ	-10.1126
▁ehad	-10.1126
▁award	-10.1126
▁اسپیکر	-10.1127
▁fatah	-10.1127
▁چاند	-10.1127
▁عزم	-10.1128
▁مراد	-10.1129
▁سنگین	-10.1129
▁سیلاب	-10.1129
▁کھیلنے	-10.1137
▁ام	-10.1144
پولیس	-10.1145
▁baazi	-10.1148
▁fouji	-10.1152
▁ضرور	-10.1153
▁پس	-10.1154
▁شا	-10.1163
hat	-10.1168
▁کاروباری	-10.117
▁بحال	-10.1173
▁مرد	-10.1184
▁du	-10.1191
▁zakham	-10.1192
▁ماحول	-10.1198
▁computer	-10.1199
▁morad	-10.1199
▁quied	-10.1199
▁محنت	-10.1199
▁نوازشریف	-10.1199
▁سرگرمیوں	-10.12
▁اسٹار	-10.1203
▁wicketon	-10.1205
▁عزیز	-10.1205
▁po	-10.121
▁K	-10.122
▁چوک	-10.1222
▁سچ	-10.1227
▁فری	-10.123
▁aah	-10.1236
▁kahe	-10.1239
▁نشان	-10.126
▁ریلی	-10.1261
▁رکھیں	-10.1269
▁mojooda	-10.1271
▁hesiyat	-10.1272
▁khusbhoo	-10.1272
▁nazdeek	-10.1272
▁qibla	-10.1272
▁intahi	-10.1272
▁beech	-10.1272
▁یوسف	-10.1272
▁منظر	-10.1272
▁ڈگری	-10.1272
▁پہ	-10.1273
▁جنہیں	-10.1274
▁انتظامات	-10.1275
▁کھا	-10.1286
▁لگی	-10.1289
▁بدل	-10.1292
▁والدہ	-10.1293
▁daman	-10.1297
▁we	-10.13
▁kat	-10.1322
▁قدم	-10.1323
▁عورت	-10.1327
▁guzra	-10.1336
وان	-10.1339
▁Shahzad	-10.1345
▁pichlle	-10.1345
▁riyasat	-10.1345
▁منصوبوں	-10.1345
▁پوزیشن	-10.1345
▁tumhara	-10.1345
▁hijar	-10.1345
▁دباؤ	-10.1346
▁fsdf	-10.1346
▁rakhi	-10.1346
▁cheezein	-10.1347
▁چاہتا	-10.1348
▁khanaay	-10.1353
▁جامعہ	-10.1353
▁چاہتی	-10.1362
▁تجارتی	-10.1363
▁گاہ	-10.1364
▁آتا	-10.1365
▁aai	-10.1365
▁طلبہ	-10.1375
▁عمارت	-10.1401
وت	-10.1401
▁فار	-10.1401
▁فر	-10.1413
▁ہدایات	-10.1419
▁پیمانے	-10.1421
▁فرمایا	-10.1421
▁تجربہ	-10.1423
▁راستے	-10.1429
بار	-10.1453
▁ٹکٹ	-10.1463
بن	-10.1469
▁لگائے	-10.1469
▁گن	-10.1472
▁vi	-10.1477
▁kaaf	-10.1483
▁ilaqa	-10.1485
▁گیند	-10.1485
▁amjad	-10.1494
▁maidan	-10.1494
▁majmoa	-10.1494
▁martaba	-10.1494
▁mumtaz	-10.1494
▁صفائی	-10.1495
▁batana	-10.1497
▁آدمی	-10.15
▁مسٹر	-10.1502
▁سردار	-10.1502
▁io	-10.1512
مانیٹرنگ	-10.1515
مت	-10.1516
نڈر	-10.1529
▁کرائی	-10.1541
▁میک	-10.1557
is	-10.1559
▁pehchan	-10.156
▁خواہش	-10.1568
▁dain	-10.1568
▁Ejaaz	-10.1569
▁colum	-10.1569
▁rivayet	-10.1569
▁افواج	-10.1569
▁معاشرے	-10.1569
▁استحکام	-10.1569
▁خرچ	-10.1569
▁khandan	-10.1569
▁with	-10.157
▁ٹھیک	-10.157
▁کریم	-10.1572
▁Is	-10.1574
▁سنگ	-10.1575
▁گھنٹوں	-10.1576
▁مشن	-10.1578
▁کررہا	-10.1581
▁2016	-10.1583
▁پکڑ	-10.1584
▁مسافروں	-10.1589
▁2015	-10.1589
▁مالک	-10.1591
▁پاکستانیوں	-10.1594
لن	-10.1603
▁ایڈ	-10.1609
▁saat	-10.1616
اے	-10.1618
▁منہ	-10.1627
▁lagtay	-10.1642
▁80	-10.1644
▁faqat	-10.1645
▁maheman	-10.1645
▁pehlu	-10.1645
▁تشویش	-10.1645
▁خطرناک	-10.1645
▁ٹورنامنٹ	-10.1645
▁shikaar	-10.1645
▁jadeed	-10.1645
▁پڑھئیے	-10.1645
▁عزت	-10.1645
▁رپورٹس	-10.1646
▁bare	-10.1646
▁bilal	-10.1648
▁کال	-10.1652
روں	-10.1653
▁2017	-10.1658
▁rastay	-10.166
▁پانے	-10.1662
▁آور	-10.1663
000	-10.1666
▁چلے	-10.1666
▁teh	-10.1669
▁zaati	-10.1674
▁جنسی	-10.1687
▁جل	-10.1688
▁دھو	-10.1709
▁ghareeb	-10.1714
▁مقبول	-10.172
▁mehboob	-10.1721
▁molana	-10.1721
▁mutahidda	-10.1721
▁pesey	-10.1721
▁مسلح	-10.1721
▁نتیجہ	-10.1721
▁تیسرے	-10.1721
▁زندہ	-10.1722
▁فخر	-10.1722
to	-10.1724
▁hasti	-10.1725
▁چودھری	-10.1725
▁تاریخی	-10.1727
▁پارلیمانی	-10.1729
▁reham	-10.1733
ائز	-10.1739
▁70	-10.1741
aaf	-10.1755
▁35	-10.1762
▁junoo	-10.177
▁ڈیزائن	-10.177
▁مان	-10.1778
▁parhi	-10.178
▁فن	-10.1782
▁tanha	-10.1783
▁طالب	-10.1788
لین	-10.1791
▁ممبر	-10.1792
▁صدی	-10.1797
▁ahmiyat	-10.1798
▁tehreek	-10.1798
▁wujood	-10.1798
▁خاتمے	-10.1798
▁سیکریٹری	-10.1798
▁مشاورت	-10.1798
▁kaho	-10.1798
▁shaed	-10.1802
▁لاکھوں	-10.1803
▁pabandi	-10.1805
▁gha	-10.1809
▁yoon	-10.181
▁اوور	-10.1814
▁کھیلا	-10.1816
▁پہنچنے	-10.1818
F	-10.1822
▁wahi	-10.1827
15	-10.183
▁بنانا	-10.1832
ڑھ	-10.1833
▁عدالتی	-10.1854
▁pouncha	-10.1873
▁musalsal	-10.1876
▁توہین	-10.1876
▁اتنا	-10.1876
▁aas	-10.1877
▁saqi	-10.1879
▁میٹنگ	-10.1879
▁اضلاع	-10.1879
▁sardi	-10.1889
ld	-10.1892
▁gaind	-10.1898
▁چن	-10.1917
انہوں	-10.1919
▁عملے	-10.1935
▁سنا	-10.1939
▁seekh	-10.1943
▁قطر	-10.1946
▁محدود	-10.1954
▁buri	-10.1954
▁مقیم	-10.1954
▁aabb	-10.1954
▁jamaat	-10.1957
▁اثرات	-10.1958
▁badan	-10.1964
ck	-10.1972
▁bani	-10.1976
iyan	-10.1984
▁ملکوں	-10.199
▁raho	-10.199
▁رہا۔	-10.2005
▁ریڈ	-10.2007
▁harf	-10.2008
▁پیدائش	-10.2017
▁jani	-10.2017
ران	-10.2022
▁صد	-10.2032
▁dehshat	-10.2032
▁pehle	-10.2032
▁نمائش	-10.2032
▁school	-10.2032
▁اسلحہ	-10.2032
▁مطلب	-10.2033
▁عبدال	-10.2033
▁اکبر	-10.2034
▁ازیں	-10.2047
▁وے	-10.2051
▁نقل	-10.2055
▁inn	-10.2058
▁نگر	-10.2061
▁روشن	-10.2062
▁gae	-10.2063
▁کان	-10.2063
▁banana	-10.2073
▁دان	-10.2075
▁banai	-10.2078
▁toar	-10.2084
▁نی	-10.2092
▁tan	-10.2092
▁تنخواہ	-10.2093
▁بچا	-10.2096
▁dawa	-10.2102
▁فرق	-10.2104
چا	-10.2105
▁کٹ	-10.2108
▁bunyaad	-10.2112
▁decemeber	-10.2112
▁fursat	-10.2112
▁udaas	-10.2112
▁جرائم	-10.2112
▁منسوخ	-10.2112
▁maamla	-10.2112
▁رسائی	-10.2114
▁عارف	-10.2118
▁aasani	-10.2119
▁جیسا	-10.212
▁kashti	-10.2121
▁وصول	-10.2124
▁heen	-10.215
▁bank	-10.2153
▁کروا	-10.2161
▁ویل	-10.2162
وف	-10.2172
▁yo	-10.2174
سپ	-10.218
▁ساز	-10.2181
▁اضافی	-10.2192
▁حصول	-10.2192
▁شمولیت	-10.2192
▁جارہے	-10.2195
▁رہتے	-10.2199
▁موجودگی	-10.22
▁aamad	-10.22
▁لاش	-10.2202
▁عباسی	-10.2202
▁war	-10.2215
▁gaari	-10.222
▁uf	-10.2224
▁سیشن	-10.2225
▁دلچسپی	-10.223
▁حکمت	-10.2247
▁کرا	-10.2248
▁32	-10.2253
گیا	-10.2257
▁نامہ	-10.2262
▁جم	-10.2269
▁مہ	-10.2271
▁saaz	-10.2271
▁Muhib	-10.2273
▁lajawab	-10.2273
▁ثبوت	-10.2273
▁مشورہ	-10.2273
▁پچھلے	-10.2273
▁مبنی	-10.2273
▁nasir	-10.2273
▁ziada	-10.2273
▁satah	-10.2274
▁ممبران	-10.2279
▁یونٹ	-10.2279
▁dawat	-10.228
▁0	-10.2281
▁نیک	-10.2282
▁آئینی	-10.2295
▁عہد	-10.2301
▁ak	-10.2309
▁حکمران	-10.231
▁bande	-10.231
▁duaon	-10.2311
▁لڑ	-10.2312
▁H	-10.2316
▁farz	-10.232
▁گئیں۔	-10.2321
▁Hi	-10.2323
▁پوچھ	-10.2335
▁group	-10.2354
▁mazameen	-10.2354
▁taweel	-10.2354
▁نثار	-10.2354
▁نمٹنے	-10.2354
▁allama	-10.2354
▁کینیڈا	-10.2354
▁دریافت	-10.2354
▁shamil	-10.2355
▁کمیونٹی	-10.2356
▁بالکل	-10.2356
▁افسوس	-10.2358
▁چترال	-10.2361
ھا	-10.2362
▁jawabaat	-10.2363
اہ	-10.2366
▁کھ	-10.237
▁sang	-10.2374
▁ممکنہ	-10.2378
nk	-10.2389
▁عراق	-10.239
▁cho	-10.2399
▁انتظام	-10.2403
▁داروں	-10.2413
▁حفاظت	-10.2414
▁dhoond	-10.2435
▁aitbaar	-10.2436
▁fallak	-10.2436
▁mehez	-10.2436
▁muntakhib	-10.2436
▁nigaar	-10.2436
▁بحث	-10.2436
▁تجزیہ	-10.2436
▁مداخلت	-10.2436
▁انسٹاگرام	-10.2436
▁nasal	-10.2436
▁ردعمل	-10.2436
▁gunah	-10.2436
▁anho	-10.2437
▁لگے	-10.2438
▁قمر	-10.2438
▁teer	-10.244
▁جمہوریت	-10.2441
▁ٹیمیں	-10.2449
▁Sha	-10.2454
▁baha	-10.2455
▁نگرانی	-10.2456
ھر	-10.2481
▁حاضری	-10.2498
یٰ	-10.2504
so	-10.2505
▁نامزد	-10.2517
▁khuwa	-10.2518
▁Butt	-10.2518
▁Mirza	-10.2518
▁bakol	-10.2518
▁nstaliq	-10.2518
▁taqseem	-10.2518
▁وسائل	-10.2518
▁shore	-10.2518
▁گاندھی	-10.2518
▁aise	-10.2519
▁مخصوص	-10.252
▁گرین	-10.2524
▁طاہر	-10.2524
▁صدیقی	-10.2526
▁meharbani	-10.2526
▁حافظ	-10.2529
▁سیاہ	-10.2529
▁لایا	-10.2531
▁sochta	-10.2545
▁file	-10.2547
▁jaag	-10.2552
۔۔۔	-10.2552
لاکھ	-10.2553
▁پلان	-10.2555
▁برا	-10.2569
▁ایکٹ	-10.2569
▁Israel	-10.2584
▁فاروق	-10.2585
▁way	-10.2589
▁سنی	-10.2589
▁qabza	-10.2592
▁حامل	-10.2593
▁آرڈر	-10.2594
▁saans	-10.2594
chi	-10.2595
▁Shakir	-10.2602
▁munasib	-10.2602
▁pasandeeda	-10.2602
▁rishta	-10.2602
▁suroor	-10.2602
▁کمپیوٹر	-10.2602
▁unhein	-10.2602
▁بخش	-10.2602
▁mukhtasir	-10.2602
▁2,	-10.2609
▁تحصیل	-10.2609
▁ہوکر	-10.2613
سٹی	-10.2614
▁وکٹیں	-10.2616
▁sarkari	-10.2618
▁karwa	-10.2623
▁muta	-10.2625
G	-10.263
▁سازی	-10.2631
▁خوب	-10.2635
▁خواب	-10.2644
دھا	-10.2652
▁45	-10.2652
لر	-10.2653
▁ساتھی	-10.2654
▁Kha	-10.2654
▁کہانی	-10.266
ool	-10.2668
▁کیں	-10.2675
14	-10.2678
سالہ	-10.2678
▁مناسب	-10.2679
Y	-10.268
▁اتر	-10.2683
▁Sindh	-10.2686
▁abdullah	-10.2686
▁khitaab	-10.2686
▁lehaaz	-10.2686
▁nihayat	-10.2686
▁nuqta	-10.2686
▁rupay	-10.2686
▁ایمپائرز	-10.2686
▁خاتمہ	-10.2686
▁مرحلے	-10.2686
▁مسئلے	-10.2686
▁واحد	-10.2686
▁araha	-10.2686
▁halaak	-10.2686
▁وسیم	-10.2686
▁suneney	-10.2686
▁ڈبلیو	-10.2686
▁الا	-10.2687
▁vote	-10.2689
hay	-10.269
▁رکنی	-10.2691
▁حیدر	-10.2693
▁marnay	-10.2698
▁likhay	-10.2698
زم	-10.2699
▁maaf	-10.2699
▁bolay	-10.2708
▁کشمیریوں	-10.271
▁خانے	-10.271
▁قریبی	-10.271
▁pan	-10.2712
▁gaon	-10.2713
sha	-10.2716
▁وال	-10.2725
▁karein	-10.2741
▁bal	-10.2743
نوں	-10.2751
▁ٹویٹ	-10.2762
▁shaheed	-10.2763
▁maienay	-10.2771
▁مبتلا	-10.2771
▁horahee	-10.2771
▁pairo	-10.2771
▁اموات	-10.2771
▁باہمی	-10.2771
▁دریا	-10.2772
▁کیریئر	-10.2772
▁page	-10.2773
ارہ	-10.2775
▁seenay	-10.2776
▁mann	-10.2781
▁گریڈ	-10.2783
30	-10.2787
اگر	-10.2788
▁ہوٹل	-10.279
▁کوششوں	-10.2793
▁پیٹ	-10.2795
▁روزانہ	-10.2797
40	-10.28
یب	-10.2801
▁تفصیلی	-10.2804
▁sabab	-10.2809
▁sala	-10.2811
جہ	-10.2815
▁ghulam	-10.2839
▁اف	-10.284
▁akhbar	-10.2851
▁kharray	-10.2856
▁tromin	-10.2856
▁اچانک	-10.2856
oor	-10.2863
▁sawalaat	-10.2863
▁سائ	-10.2864
▁رکھنا	-10.2865
▁chaltay	-10.2879
▁likhain	-10.288
▁پائی	-10.2884
▁houn	-10.2887
▁رس	-10.2888
▁مفتی	-10.2894
بے	-10.2899
شو	-10.29
▁far	-10.2904
▁دیتی	-10.2905
▁ڈیٹ	-10.2905
▁aapka	-10.2909
▁ویڈیوز	-10.2918
▁یمن	-10.2919
day	-10.2933
▁bawajood	-10.2942
▁daakhil	-10.2942
▁musallah	-10.2942
▁اعوان	-10.2942
▁ظلم	-10.2942
▁Nato	-10.2943
▁قبضے	-10.2943
▁ناقابل	-10.2943
▁Iran	-10.2944
▁mohar	-10.2944
▁rasam	-10.2944
▁dor	-10.2947
▁ڈرون	-10.2948
▁لہر	-10.2949
▁sad	-10.2951
▁shaan	-10.2956
▁aath	-10.2958
11	-10.296
▁daan	-10.2968
روپے	-10.2975
▁ء	-10.2976
▁فلموں	-10.2985
▁گولی	-10.3001
▁sarkar	-10.3013
▁فوجیوں	-10.3015
▁بیک	-10.3016
▁قربانی	-10.3018
▁کردی۔	-10.3025
▁Zardari	-10.3029
▁awwal	-10.3029
▁itwaar	-10.3029
▁muqablay	-10.3029
▁بریفنگ	-10.3029
▁حادثہ	-10.3029
▁agli	-10.3029
▁بزدار	-10.3029
▁taakay	-10.3029
▁March	-10.303
▁گڑھ	-10.303
▁اسکور	-10.303
▁خوف	-10.3031
▁یکم	-10.3036
▁ador	-10.3037
▁aasman	-10.304
▁شر	-10.304
▁Z	-10.3042
▁jeh	-10.3044
▁جانی	-10.3045
▁th	-10.3047
▁khuda	-10.3059
▁فرد	-10.3063
فیصد	-10.3063
▁ٹا	-10.3091
▁U	-10.3094
▁yahin	-10.3095
▁محل	-10.3099
▁بیس	-10.3102
▁ti	-10.3105
▁کیں۔	-10.3105
▁انتہا	-10.3116
▁Anees	-10.3117
▁dekhieye	-10.3117
▁mehfooz	-10.3117
▁yuhin	-10.3117
▁اسٹیڈیم	-10.3117
▁اعتراف	-10.3117
▁حتمی	-10.3117
▁agarchay	-10.3117
▁وفیات	-10.3117
▁aalmi	-10.3117
▁تکلیف	-10.3117
▁فیملی	-10.3117
▁کمزور	-10.3117
▁nafs	-10.3118
▁wazan	-10.312
▁کارکنان	-10.3122
▁ilaqay	-10.3128
▁بولر	-10.3132
▁sarah	-10.3137
▁baagh	-10.3141
▁af	-10.3142
▁arif	-10.3143
▁sair	-10.315
rk	-10.315
حکومت	-10.3152
▁کرے۔	-10.3154
▁shar	-10.3154
ائر	-10.3155
دھی	-10.3171
▁افتتاح	-10.3179
▁chu	-10.3187
قہ	-10.3195
ئیر	-10.3196
▁shah	-10.3198
80	-10.32
▁بنائیں	-10.3202
▁internet	-10.3205
▁رفیق	-10.3205
▁نمائندگی	-10.3205
▁اوقات	-10.3205
▁مہینے	-10.3205
▁zariye	-10.3207
▁تیسری	-10.3207
▁طالبات	-10.3209
▁parheen	-10.3211
▁کھولنے	-10.3211
▁ایونٹ	-10.3216
▁Wo	-10.3219
ڈا	-10.3225
کھا	-10.3228
▁ساری	-10.3237
▁ٹر	-10.3238
▁yy	-10.324
▁logo	-10.3247
ڈیلی	-10.3273
▁oh	-10.3276
عہ	-10.3277
▁aon	-10.328
ham	-10.3286
▁pe	-10.3287
▁مجھ	-10.3288
▁صارف	-10.3292
▁chasham	-10.3295
▁science	-10.3295
▁ارشد	-10.3295
▁wastay	-10.3295
▁مابین	-10.3295
▁اوپن	-10.3296
▁ٹائمز	-10.3303
▁jawani	-10.3306
▁chor	-10.331
▁پوائنٹس	-10.3312
▁لائی	-10.3312
▁رن	-10.3313
▁aj	-10.3315
▁فوڈ	-10.3321
▁؟	-10.3327
اسلام	-10.3332
▁درد	-10.3335
aal	-10.334
▁36	-10.3349
▁پہن	-10.3353
▁kare	-10.3373
▁Bartania	-10.3385
▁HAI	-10.3385
▁puhanche	-10.3385
▁shikayat	-10.3385
▁zabt	-10.3385
▁انتظار	-10.3385
▁سرفراز	-10.3385
▁عناصر	-10.3385
▁پراجیکٹ	-10.3385
▁مستحکم	-10.3385
▁انٹرنیٹ	-10.3385
▁انگیز	-10.3385
▁تصور	-10.3385
▁بیت	-10.3386
nda	-10.3392
▁ذہنی	-10.3395
▁لازمی	-10.3399
▁jaa	-10.3402
▁ree	-10.3403
▁پریشان	-10.3408
▁رام	-10.3409
min	-10.3419
محمد	-10.3422
▁bachi	-10.343
▁سائنس	-10.3441
▁lay	-10.3447
پن	-10.3449
▁کرلیا۔	-10.3451
▁فا	-10.3452
▁car	-10.3454
▁tau	-10.3456
▁فائل	-10.3458
▁ترمیم	-10.346
▁سلیم	-10.3466
▁qissa	-10.3466
▁usool	-10.3469
▁Sajid	-10.3476
▁khowaboon	-10.3476
▁muntazir	-10.3476
▁باجوہ	-10.3476
▁حیران	-10.3476
▁طیارے	-10.3476
▁اکرم	-10.3476
▁naahi	-10.3476
▁اتنی	-10.3476
▁امراض	-10.3476
▁حدود	-10.3477
▁مقدمے	-10.3478
▁Tu	-10.3481
▁bazm	-10.3481
▁We	-10.3484
▁کارروائیوں	-10.3485
▁چلانے	-10.3487
▁gharz	-10.3488
▁lagaya	-10.3491
▁mufti	-10.3491
▁راستہ	-10.3494
▁mi	-10.3502
▁uss	-10.3506
▁ph	-10.3508
rn	-10.3511
اُردو	-10.3513
▁jate	-10.3517
▁باپ	-10.3518
راج	-10.3521
▁unki	-10.3524
▁barah	-10.3527
ستان	-10.353
ئم	-10.3541
▁پریشانی	-10.3544
▁پرواز	-10.3544
▁دم	-10.3552
ٹک	-10.3552
▁khaya	-10.3553
▁باتیں	-10.3554
▁Re	-10.3556
▁tabdeeli	-10.3557
▁N	-10.3559
▁ناک	-10.3561
▁اختلاف	-10.3564
▁Par	-10.3564
▁سوات	-10.3566
▁Parvez	-10.3567
▁Zubair	-10.3567
▁fazai	-10.3567
▁jurm	-10.3567
▁lambi	-10.3567
▁tanqeed	-10.3567
▁wapsi	-10.3567
▁شراکت	-10.3567
▁گورنمنٹ	-10.3567
▁انڈیز	-10.3568
▁ilaaj	-10.3568
▁Adam	-10.3568
▁Raza	-10.3569
▁inaam	-10.3572
▁بلیک	-10.3573
▁بچانے	-10.3574
▁اسسٹنٹ	-10.3574
▁لسٹ	-10.3576
▁اج	-10.3578
▁ذ	-10.358
▁پڑھ	-10.3583
▁bhaij	-10.3584
▁jaat	-10.3587
▁جیسی	-10.3594
▁سڑکوں	-10.3594
ang	-10.3599
▁ganay	-10.3601
▁shai	-10.3606
▁لینا	-10.3613
▁امدادی	-10.3622
▁suni	-10.3628
▁ویں	-10.3632
لڈ	-10.3638
▁قوت	-10.3643
▁To	-10.365
▁bait	-10.3656
▁امتحان	-10.3657
▁بہ	-10.3658
▁Kashmir	-10.366
▁daikhon	-10.366
▁mufeed	-10.366
▁احترام	-10.366
▁ظفر	-10.366
▁میزائل	-10.366
▁code	-10.366
▁طوفان	-10.366
▁O	-10.3661
▁علماء	-10.3661
▁arzoo	-10.3662
▁panah	-10.3662
▁ہونی	-10.3664
▁wale	-10.3668
▁شخصیت	-10.3668
ہار	-10.367
▁marzi	-10.3671
▁وائس	-10.3677
▁andar	-10.368
ونگ	-10.3682
▁sabaq	-10.3682
gr	-10.3687
▁milna	-10.3696
علی	-10.3701
▁اُ	-10.3704
▁abbas	-10.3705
▁رفت	-10.3706
▁مارے	-10.3707
21	-10.3713
▁De	-10.3727
▁ڈو	-10.3728
17	-10.3737
▁چا	-10.3741
▁لال	-10.3743
▁مشین	-10.3745
▁wicket	-10.3746
▁سرگرم	-10.3752
▁class	-10.3753
▁nirng	-10.3753
▁انکوائری	-10.3753
▁اچھے	-10.3753
▁منسلک	-10.3753
▁نیویارک	-10.3753
▁وضاحت	-10.3753
▁Afghanistan	-10.3753
▁پیشکش	-10.3753
▁مجلس	-10.3753
▁دستخط	-10.3754
▁report	-10.3754
▁down	-10.3754
▁chacha	-10.3754
▁meter	-10.3754
▁larai	-10.3755
▁farsi	-10.3755
▁maalik	-10.3755
▁The	-10.3755
▁hind	-10.3758
▁سیکٹر	-10.3759
▁آسانی	-10.376
▁waqeat	-10.3762
▁کپور	-10.3765
▁phoolon	-10.377
▁karnay	-10.3783
نچ	-10.3783
ss	-10.3796
25	-10.38
ئن	-10.3803
▁im	-10.3805
▁سکھ	-10.3817
▁maghrib	-10.383
سکو	-10.3832
mon	-10.3833
▁پورٹ	-10.3848
▁ڈیجیٹل	-10.3848
▁Bartanwi	-10.3848
▁series	-10.3848
▁ڈیوٹی	-10.3848
▁keliye	-10.3848
▁yakki	-10.3849
▁ہاکی	-10.3851
▁اشیاء	-10.3852
اخ	-10.3852
▁ہٹ	-10.3857
▁کرائے	-10.3859
▁ٹویٹر	-10.386
▁چاہ	-10.3867
▁معافی	-10.3872
▁بلندی	-10.3878
K	-10.3886
▁امیدواروں	-10.3887
▁ریٹ	-10.3888
▁وکٹوں	-10.389
▁صدارتی	-10.3894
▁barf	-10.39
یف	-10.3906
▁Saba	-10.3915
▁زبردست	-10.3916
▁thak	-10.3919
▁باغ	-10.392
لیا	-10.3926
▁one	-10.3939
▁44	-10.3941
▁Nizami	-10.3943
▁dollar	-10.3943
▁ikhtilaaf	-10.3943
▁interview	-10.3943
▁iqtabas	-10.3943
▁saltanat	-10.3943
▁samjhta	-10.3943
▁شکایات	-10.3943
▁نریندر	-10.3943
▁beeet	-10.3943
▁free	-10.3943
▁shuda	-10.3945
▁gharri	-10.3946
▁میئر	-10.3946
▁کہاں	-10.3946
▁fiza	-10.3947
▁kitabon	-10.3947
ست	-10.3947
sta	-10.3948
▁اگرچہ	-10.395
▁yaan	-10.3952
▁حاجی	-10.3952
▁بڑھتی	-10.3954
▁name	-10.3969
▁کشمیری	-10.397
▁baala	-10.3974
▁sadi	-10.3976
.5	-10.398
▁غلطی	-10.3983
▁jaam	-10.3989
غیر	-10.3989
▁baara	-10.3998
uk	-10.4003
بھ	-10.4003
▁چارج	-10.4005
ایم	-10.4007
لوں	-10.4009
▁روزگار	-10.4015
▁all	-10.402
▁جھوٹ	-10.4032
عب	-10.4032
▁مکان	-10.4035
▁copy	-10.4039
▁halaank	-10.4039
▁sukoon	-10.4039
▁احساس	-10.4039
▁مواقع	-10.4039
▁ٹرافی	-10.4039
▁aagaye	-10.4039
▁batao	-10.404
▁تاحال	-10.404
▁karlen	-10.4044
▁شان	-10.4045
▁عدالتوں	-10.4046
▁hamlay	-10.4048
▁دیکھتے	-10.4049
▁arsay	-10.4052
▁باب	-10.406
▁اٹھ	-10.4074
▁فکر	-10.4078
▁پھل	-10.4091
▁saada	-10.4103
روز	-10.4107
▁مصر	-10.4123
▁بنی	-10.4126
▁dair	-10.4127
▁ماہر	-10.4128
way	-10.4131
▁تینوں	-10.4133
▁assembly	-10.4136
▁boojh	-10.4136
▁doodh	-10.4136
▁iradah	-10.4136
▁mushtamil	-10.4136
▁آرٹیکل	-10.4136
▁bazaar	-10.4136
▁shareek	-10.4136
▁مربع	-10.4136
▁unkay	-10.4136
▁زرعی	-10.4137
▁لباس	-10.4137
تم	-10.4137
▁خطرے	-10.4138
▁عبداللہ	-10.4138
▁اکثریت	-10.4139
▁milein	-10.4143
▁انڈین	-10.4147
ver	-10.4149
اتے	-10.4156
▁saki	-10.4157
▁qad	-10.4168
▁kara	-10.4169
▁رہائی	-10.4169
ts	-10.4171
▁cal	-10.4179
▁bandi	-10.4185
▁جانچ	-10.4202
▁لوک	-10.4208
زر	-10.4212
▁آب	-10.4217
▁khara	-10.4228
▁دھمکی	-10.4231
▁فائر	-10.4232
▁Ameer	-10.4234
▁Srilanka	-10.4234
▁taswerain	-10.4234
▁الرحمن	-10.4234
▁باقاعدہ	-10.4234
▁حوصلہ	-10.4234
▁کالعدم	-10.4234
▁عابد	-10.4235
▁مبارکباد	-10.4235
▁دائیں	-10.4236
▁جرمانہ	-10.4236
▁2012	-10.4238
▁منفی	-10.4239
▁hunar	-10.4239
خا	-10.424
▁yii	-10.4243
▁گرام	-10.4245
▁ملازمت	-10.4249
▁بچہ	-10.425
▁baari	-10.4253
جب	-10.4254
زا	-10.4263
▁انور	-10.4269
▁ٹاپ	-10.4269
▁تحریر	-10.4274
زہ	-10.4274
co	-10.4274
▁تن	-10.4275
انتقال	-10.4279
▁شاہین	-10.4284
▁ٹوٹ	-10.4284
▁تقریبا	-10.4288
رڈ	-10.4288
▁zameen	-10.4294
▁کووڈ	-10.4295
▁maana	-10.4297
▁فلسطین	-10.4299
پال	-10.4302
ik	-10.4315
▁majaboor	-10.4316
▁ٹن	-10.4324
01	-10.4327
ٹین	-10.4331
▁Yousuf	-10.4333
▁general	-10.4333
▁haqooq	-10.4333
▁samjhain	-10.4333
▁اعجاز	-10.4333
▁حرارت	-10.4333
▁طیاروں	-10.4333
▁نوٹیفکیشن	-10.4333
▁ورژن	-10.4333
▁board	-10.4334
▁bhook	-10.4334
▁azaab	-10.4334
▁جلسے	-10.4335
▁kafir	-10.4335
▁jaga	-10.4335
▁تکمیل	-10.4336
▁وادی	-10.4338
ایس	-10.4338
▁مداحوں	-10.434
▁کروانے	-10.434
▁منڈی	-10.4341
▁بیٹری	-10.4344
▁آیت	-10.4346
▁Se	-10.4349
ment	-10.435
▁200	-10.4367
▁kin	-10.4372
pa	-10.438
▁naak	-10.439
che	-10.4393
▁ہا	-10.4399
▁34	-10.4409
ویب	-10.4413
▁muft	-10.4417
▁dosti	-10.4417
▁لگائی	-10.4425
▁baab	-10.4427
خان	-10.4432
▁chhupa	-10.4433
▁Bharti	-10.4433
▁university	-10.4433
▁حفیظ	-10.4433
▁رضوان	-10.4433
▁سوسائٹی	-10.4433
▁وابستہ	-10.4433
▁ahsaan	-10.4433
▁saahil	-10.4433
▁دولت	-10.4433
▁Farhat	-10.4433
▁Da	-10.4434
▁اتار	-10.4434
▁گوشت	-10.4435
▁وائی	-10.4436
▁اسماعیل	-10.4436
▁اٹھایا	-10.4438
▁ریلیف	-10.4438
▁حقیقی	-10.4439
▁رہتا	-10.4443
▁بخاری	-10.445
▁لکھ	-10.4453
نَ	-10.446
▁khamoshi	-10.4461
▁hissay	-10.4464
دگی	-10.4471
▁parhai	-10.4481
non	-10.4488
▁کوششیں	-10.4488
kr	-10.4493
▁سفارت	-10.4508
▁مست	-10.4511
▁48	-10.4512
▁raja	-10.4515
▁beti	-10.4524
نامہ	-10.4532
▁bataiye	-10.4534
▁muqaabla	-10.4534
▁برداشت	-10.4534
▁زلزلے	-10.4534
▁bomb	-10.4535
▁sorat	-10.4535
▁foot	-10.4535
der	-10.4539
▁aurton	-10.4542
▁tehat	-10.4542
▁فیلڈ	-10.4544
▁haei	-10.4545
▁maaray	-10.4545
▁فوٹو	-10.4546
▁yak	-10.4547
▁L	-10.4548
ٹے	-10.456
▁وہیں	-10.4566
▁شور	-10.4568
▁bha	-10.4574
▁مح	-10.4581
▁حلف	-10.4588
▁مشرق	-10.4593
▁غم	-10.4605
▁ایمان	-10.461
▁سمندر	-10.461
▁مجرم	-10.4617
▁pareshan	-10.4619
▁ٹری	-10.4628
▁apke	-10.463
▁عبد	-10.4634
▁Bangladesh	-10.4636
▁France	-10.4636
▁Peshawar	-10.4636
▁election	-10.4636
▁maqbool	-10.4636
▁tajweez	-10.4636
▁ادویات	-10.4636
▁maahir	-10.4636
▁aashna	-10.4636
▁bastii	-10.4636
▁جناح	-10.4636
▁اسکرین	-10.4637
▁chaman	-10.4637
▁لڑائی	-10.4639
▁چمچ	-10.4639
▁توقع	-10.4639
شک	-10.464
▁badlay	-10.4641
▁بلاک	-10.4643
▁ہورہا	-10.4644
ou	-10.4644
▁ایڈیشنل	-10.4645
▁سپیکر	-10.4646
▁bahanay	-10.4647
▁kamray	-10.4649
▁متاثرین	-10.465
عمل	-10.4658
▁Shahid	-10.4675
▁گیم	-10.4677
▁پٹ	-10.4685
▁دلچسپ	-10.4691
▁مری	-10.4697
نیا	-10.4697
▁بھو	-10.4713
▁جائز	-10.4721
▁وڈ	-10.4721
▁chehra	-10.473
▁zyada	-10.4731
16	-10.4738
▁kutub	-10.4739
▁tasleem	-10.4739
▁zeher	-10.4739
▁اظہر	-10.4739
▁نعرے	-10.4739
▁دکھ	-10.474
▁قدیم	-10.4741
▁بیورو	-10.4742
▁2011	-10.4743
▁جنگی	-10.4743
▁aay	-10.4744
▁dastan	-10.4745
▁بہار	-10.4746
▁daba	-10.4746
▁haftay	-10.4748
▁چلنے	-10.475
▁اٹھائے	-10.4751
▁کمیون	-10.4753
▁وہی	-10.4753
▁بارہ	-10.4755
▁waar	-10.4756
▁ہلاکت	-10.4757
▁dia	-10.4758
ze	-10.4759
▁janay	-10.4759
pe	-10.4778
▁رد	-10.4778
▁لیٹر	-10.4784
▁بیرونی	-10.4785
سیاست	-10.4791
▁بنیادوں	-10.4798
▁mulk	-10.4802
▁کھیلوں	-10.4803
بت	-10.4804
▁اسکی	-10.4822
do	-10.4826
▁زمان	-10.4826
▁اغوا	-10.4835
▁fehmi	-10.4844
▁kilometer	-10.4844
▁musafir	-10.4844
▁qowat	-10.4844
▁tarteeb	-10.4844
▁رقبہ	-10.4844
▁طارق	-10.4844
▁مستقل	-10.4844
▁بزنس	-10.4844
▁خراج	-10.4844
▁talak	-10.4845
▁دہانی	-10.4846
▁دینی	-10.4847
▁جسمانی	-10.4847
▁صحیح	-10.485
▁سبھا	-10.4851
▁yahee	-10.4852
▁list	-10.4852
▁dho	-10.4855
اپ	-10.4858
▁saza	-10.4858
▁اختیارات	-10.4863
▁بیٹا	-10.487
▁manay	-10.4882
▁دیوار	-10.4891
▁sat	-10.4893
V	-10.4894
▁ghar	-10.4898
▁Sh	-10.4905
▁تباہی	-10.4908
24	-10.4908
▁فو	-10.4914
▁dora	-10.4919
sp	-10.492
▁سکی	-10.4924
▁امان	-10.4929
توں	-10.4932
▁گرا	-10.4946
▁tamasha	-10.4949
▁faqeer	-10.4949
▁ibadat	-10.4949
▁lehaza	-10.4949
▁nishaan	-10.4949
▁rgbi	-10.4949
▁sharaab	-10.4949
▁موثر	-10.4949
▁bemaar	-10.4949
▁جنازہ	-10.4949
▁وسیع	-10.4949
▁naqal	-10.4949
▁taluqaat	-10.4949
▁رینجرز	-10.4949
▁ساحل	-10.495
▁mehakma	-10.495
▁طرز	-10.4951
▁سکا	-10.4952
▁ghantay	-10.4952
▁vle	-10.4953
▁muashray	-10.4954
▁naqsh	-10.4954
▁سعد	-10.4961
▁sukhan	-10.4961
▁note	-10.4962
▁lamhay	-10.4965
▁laya	-10.4969
▁نبی	-10.4975
▁ura	-10.4977
▁khas	-10.4987
▁لیں۔	-10.4987
▁phela	-10.4988
▁badalna	-10.4994
ayi	-10.4994
no	-10.4999
▁ky	-10.5
’’	-10.5006
▁تنظیموں	-10.501
▁یورپ	-10.5013
▁مندر	-10.5031
wal	-10.5037
ے۔	-10.5037
▁insaa	-10.5045
ولی	-10.5045
▁zaroori	-10.5045
▁پول	-10.5054
▁استقبال	-10.5055
▁Akhtar	-10.5055
▁Australia	-10.5055
▁Faisal	-10.5055
▁January	-10.5055
▁shandaar	-10.5055
▁حرکت	-10.5055
▁زراعت	-10.5055
▁pagal	-10.5055
▁حلقوں	-10.5055
▁پائلٹ	-10.5055
▁yadgar	-10.5056
▁hashar	-10.5056
▁خیز	-10.5057
▁taqreeban	-10.5057
▁adalat	-10.5058
▁خلائی	-10.5059
▁دستاویزات	-10.5059
▁farmatay	-10.506
▁2010	-10.5061
▁saathi	-10.5063
▁بلدیاتی	-10.5063
▁asli	-10.5064
▁R	-10.5067
▁tail	-10.5068
▁عملہ	-10.5069
▁amma	-10.5071
▁33	-10.5071
▁شہزادہ	-10.5072
▁jinsi	-10.5073
▁azam	-10.5075
ندر	-10.5078
▁ویکی	-10.5083
▁Wa	-10.5084
▁اسمارٹ	-10.5089
▁رب	-10.5105
▁رہی۔	-10.5111
▁سم	-10.5112
کسی	-10.5119
▁yar	-10.512
▁parday	-10.512
▁آیا۔	-10.5127
▁سرکار	-10.5141
▁کب	-10.5142
▁کارکن	-10.5144
▁پایا	-10.5145
▁چیمپئن	-10.5151
▁char	-10.5156
تھی	-10.5159
▁آگئی	-10.5161
▁darasal	-10.5163
▁ghulaab	-10.5163
▁hasrat	-10.5163
▁police	-10.5163
▁tadween	-10.5163
▁لاپتہ	-10.5163
▁گجرات	-10.5163
▁begum	-10.5163
▁الٰہی	-10.5163
▁مقابلوں	-10.5163
▁tayari	-10.5163
▁kaatnay	-10.5163
▁بھجوا	-10.5163
▁دئیے	-10.5163
▁siyah	-10.5164
▁tabiyat	-10.5165
▁maazi	-10.5166
▁علاقائی	-10.5168
▁ایجوکیشن	-10.5168
▁pait	-10.5169
▁کھانا	-10.5171
▁has	-10.5171
▁darkaar	-10.5174
▁ہاں	-10.5175
▁tarz	-10.5176
▁بڑھنے	-10.5179
▁maang	-10.5179
▁ضمنی	-10.5185
▁میزبانی	-10.5187
▁tey	-10.5189
▁بناتے	-10.5189
▁پیز	-10.5189
▁میٹرو	-10.5197
▁muddat	-10.5201
23	-10.5203
ٹھی	-10.5209
▁dhar	-10.5228
▁بانی	-10.5229
▁گرمی	-10.5243
ارت	-10.5243
▁baadal	-10.5247
▁تجارت	-10.5251
▁ise	-10.526
▁ishara	-10.5262
▁انجینئر	-10.5267
▁بتائی	-10.5267
60	-10.5268
▁Alla	-10.5268
▁arkaan	-10.5272
▁hindostan	-10.5272
▁paidaiesh	-10.5272
▁shukriya	-10.5272
▁zanjeer	-10.5272
▁اسحاق	-10.5272
▁ایمرجنسی	-10.5272
▁تقریر	-10.5272
▁حمزہ	-10.5272
▁خاطر	-10.5272
▁ریسکیو	-10.5272
▁شائقین	-10.5272
▁شہادت	-10.5272
▁لحاظ	-10.5272
▁نشاندہی	-10.5272
▁قصور	-10.5272
▁afzai	-10.5272
▁Saint	-10.5272
▁bantaa	-10.5272
▁Noman	-10.5272
▁جامع	-10.5274
▁raftaar	-10.5274
▁harkat	-10.5275
▁kheriyat	-10.5275
▁فاسٹ	-10.5276
▁ہورہی	-10.5277
▁ازاں	-10.5283
▁کرسکتا	-10.5284
▁سوالات	-10.5285
▁anaa	-10.5287
▁90	-10.5298
haye	-10.5301
▁ڈالا	-10.5302
dr	-10.5303
▁شاہی	-10.5306
▁75	-10.5307
▁شامی	-10.5308
▁koy	-10.5309
▁دوستوں	-10.5314
▁چور	-10.5316
▁قدرتی	-10.5322
▁رکھتی	-10.5324
▁کوٹ	-10.5329
▁baj	-10.5341
▁رہتی	-10.5345
▁مذہب	-10.5355
▁امر	-10.536
▁ہتھیار	-10.5363
▁josh	-10.5372
▁aftaab	-10.5381
▁ekhtataam	-10.5381
▁irshad	-10.5381
▁khareed	-10.5381
▁shikast	-10.5381
▁fatima	-10.5381
▁سانحہ	-10.5381
▁tarek	-10.5381
▁match	-10.5382
▁ہوگیا۔	-10.5382
▁محض	-10.5383
▁گوگل	-10.5384
▁mazhabi	-10.5386
▁nein	-10.5388
▁gole	-10.5388
▁دودھ	-10.5391
▁khanah	-10.5405
▁بینچ	-10.5406
▁بیٹھے	-10.5411
eed	-10.5413
ation	-10.542
بین	-10.5424
▁اِس	-10.5432
▁dast	-10.5434
گری	-10.5442
▁مرض	-10.5443
▁sae	-10.5444
▁sheh	-10.5445
bl	-10.5458
ریز	-10.546
▁تھام	-10.5465
▁قاسم	-10.5466
▁ریفرنس	-10.5481
▁خارج	-10.5481
▁عرف	-10.5487
▁ایکس	-10.5487
▁کشی	-10.5488
▁سنبھال	-10.5488
▁میڈ	-10.5489
▁chairman	-10.5493
▁shikwah	-10.5493
▁soobah	-10.5493
▁system	-10.5493
▁tahaqeeq	-10.5493
▁world	-10.5493
▁مرحوم	-10.5493
▁نمائندوں	-10.5493
▁ڈونلڈ	-10.5493
▁jitne	-10.5493
▁otaar	-10.5493
▁شیڈول	-10.5493
▁jalva	-10.5493
▁khayalat	-10.5493
▁شاید	-10.5493
▁کینسر	-10.5494
▁dhoka	-10.5494
▁safaid	-10.5495
▁کرنسی	-10.5495
▁ایگزیکٹو	-10.5496
▁سردی	-10.5497
▁Meh	-10.5498
▁Bus	-10.5499
▁بیچ	-10.55
▁راشد	-10.5501
▁nazron	-10.5501
▁Ab	-10.5501
▁نکالنے	-10.5504
▁جانتے	-10.5507
▁سرخ	-10.5511
▁D	-10.5513
دن	-10.552
tain	-10.5521
▁bulandi	-10.5521
ارب	-10.5522
▁طورپر	-10.553
kht	-10.5535
▁likhon	-10.5537
▁ٹک	-10.5537
▁46	-10.5543
افراد	-10.5551
▁dilchasp	-10.5564
▁qudrat	-10.5587
▁جنس	-10.5591
▁naat	-10.5593
▁Do	-10.5594
▁utaar	-10.5604
▁بنک	-10.5605
▁nafrat	-10.5605
▁pasandeedgi	-10.5605
▁tasdeeq	-10.5605
▁عدلیہ	-10.5605
▁متوقع	-10.5605
▁hazir	-10.5605
▁niklee	-10.5605
▁مصنف	-10.5605
▁fazl	-10.5605
▁ڈرامہ	-10.5606
▁منزل	-10.5606
▁Jahan	-10.5607
▁zainab	-10.5607
▁hazaron	-10.5607
▁دھرنا	-10.5607
▁صف	-10.5612
▁انعام	-10.5618
▁زخمیوں	-10.5621
▁pakar	-10.5623
▁سٹاف	-10.5624
▁پاسپورٹ	-10.5624
▁taap	-10.5625
آن	-10.5634
جان	-10.5635
▁شرما	-10.5642
▁es	-10.5648
▁فلسطینیوں	-10.5648
▁wai	-10.5649
▁heran	-10.565
▁اتحادی	-10.5658
▁گھی	-10.5666
▁طلبا	-10.5678
▁shehr	-10.568
▁tark	-10.5687
▁پسندوں	-10.5689
▁مور	-10.5692
▁bna	-10.5699
▁رکاوٹ	-10.57
▁نشست	-10.57
22	-10.57
▁gaa	-10.5706
▁سلطان	-10.5707
نام	-10.571
▁shaakh	-10.5711
▁kamzor	-10.5717
▁intqaal	-10.5718
▁ittila	-10.5718
▁kaayenaat	-10.5718
▁nisbat	-10.5718
▁padtee	-10.5718
▁ramadaan	-10.5718
▁سینکڑوں	-10.5718
▁پروجیکٹ	-10.5718
▁cheeni	-10.5719
▁doulat	-10.5719
▁sakte	-10.5719
▁bemari	-10.5719
▁neelam	-10.5719
▁ship	-10.5719
▁نفرت	-10.5719
▁گھریلو	-10.5719
▁سافٹ	-10.5719
▁واٹس	-10.572
▁سارے	-10.5721
▁شرکاء	-10.5721
▁38	-10.5722
▁soft	-10.5724
▁داعش	-10.5724
▁آلات	-10.5725
▁Aur	-10.5727
▁W	-10.5728
▁ڈیل	-10.5728
▁Toh	-10.5729
حق	-10.573
▁اڑا	-10.5735
▁لنک	-10.5737
▁ہند	-10.5742
▁سروسز	-10.575
▁chahat	-10.575
▁air	-10.5762
▁suntay	-10.5768
والی	-10.5769
▁جاپان	-10.5779
▁500	-10.578
▁Say	-10.5794
▁چڑھ	-10.5798
▁بیگ	-10.5805
▁بالا	-10.5809
ندہ	-10.5826
▁گلوکار	-10.5828
▁زر	-10.583
▁پڑتا	-10.5833
▁Farooq	-10.5833
▁ahadees	-10.5833
▁ajayeen	-10.5833
▁hifazat	-10.5833
▁msnoy	-10.5833
▁rokkk	-10.5833
▁دفعہ	-10.5833
▁عملدرآمد	-10.5833
▁ڈویلپمنٹ	-10.5833
▁نصب	-10.5833
▁بیشتر	-10.5833
▁gilaay	-10.5833
▁مزاحمت	-10.5834
▁درپیش	-10.5834
▁jigar	-10.5835
▁کمانڈر	-10.5835
▁TU	-10.5835
▁اخراجات	-10.5836
▁ندیم	-10.5836
▁چاہئے۔	-10.5837
▁ملٹری	-10.5838
▁صادق	-10.5839
▁لاگت	-10.5842
▁puranay	-10.5842
▁چھوٹی	-10.5844
em	-10.5844
▁rakhti	-10.5847
▁ضروریات	-10.5849
▁kitaaben	-10.585
یلی	-10.5854
▁جوہری	-10.5856
▁Ch	-10.5868
▁بائی	-10.5869
▁aate	-10.5889
اؤں	-10.5893
سابق	-10.5897
▁..	-10.5898
▁ست	-10.5899
سب	-10.5901
▁fat	-10.5905
▁چی	-10.5907
پٹ	-10.5908
▁ملازم	-10.5909
13	-10.5912
▁پابندیوں	-10.5915
▁دماغ	-10.5923
▁ابو	-10.5924
▁سمجھا	-10.5928
▁داد	-10.5931
▁نگران	-10.5932
مز	-10.5934
▁ماسک	-10.5935
26	-10.5936
▁جرمن	-10.5939
▁hafta	-10.5941
daar	-10.5949
hakoomat	-10.595
▁aashiq	-10.595
▁arakeen	-10.595
▁choup	-10.595
▁jehaad	-10.595
▁kufar	-10.595
▁novel	-10.595
▁tamanna	-10.595
▁tarbiyat	-10.595
▁کاؤنٹی	-10.595
▁hamare	-10.595
▁jitna	-10.595
▁misar	-10.595
▁فیکٹری	-10.595
▁jeeney	-10.595
▁کلومیٹر	-10.595
▁کشیدگی	-10.595
▁haseen	-10.5951
▁peenay	-10.5952
▁sharam	-10.5952
▁خالی	-10.5953
▁ٹرانسپورٹ	-10.5953
▁billi	-10.5953
▁gira	-10.5957
▁samaan	-10.5958
pi	-10.5963
▁rawa	-10.5971
▁ہلاکتوں	-10.5973
▁betaye	-10.5973
▁دوڑ	-10.5973
▁man	-10.5982
▁انسانیت	-10.5982
▁میٹ	-10.5982
▁game	-10.5989
▁چھت	-10.5992
▁مختصر	-10.6
▁آگیا	-10.6008
81	-10.6011
▁bae	-10.6013
▁باری	-10.6015
▁گور	-10.6018
جم	-10.6021
▁یار	-10.6023
▁برسوں	-10.603
پس	-10.6038
▁میزبان	-10.6046
▁تیر	-10.6048
▁numa	-10.605
▁ٹائم	-10.6056
▁آنا	-10.6061
▁گناہ	-10.6061
qi	-10.6064
▁badnaam	-10.6067
▁deewana	-10.6067
▁guzaar	-10.6067
▁maffi	-10.6067
▁mehdi	-10.6067
▁ronaqe	-10.6067
▁انگلستان	-10.6067
▁daud	-10.6067
▁نعیم	-10.6067
▁دوسروں	-10.6067
▁سکور	-10.6068
بقیہ	-10.6068
▁خطرات	-10.6068
▁خشک	-10.6068
▁مظاہرے	-10.6069
▁کوارٹر	-10.607
▁hmm	-10.607
▁اصلاحات	-10.6073
▁مرچ	-10.6076
کہا	-10.6076
▁آنکھوں	-10.6078
▁کابل	-10.6079
▁konsi	-10.6086
▁aye	-10.6091
▁تقریبات	-10.6094
چے	-10.6108
▁پرست	-10.6112
▁ass	-10.6121
▁پہنچی	-10.6124
▁ڈیم	-10.6129
▁بلال	-10.6148
سین	-10.6177
شور	-10.6177
▁muqadma	-10.6177
▁سنائی	-10.6178
▁فور	-10.6179
▁خبروں	-10.6182
▁Naveed	-10.6186
▁September	-10.6186
▁bujh	-10.6186
▁faraham	-10.6186
▁fitrat	-10.6186
▁murabba	-10.6186
▁october	-10.6186
▁tarkeeb	-10.6186
▁utthay	-10.6186
▁version	-10.6186
▁تجاویز	-10.6186
▁حیرت	-10.6186
▁صوبوں	-10.6186
▁عرصہ	-10.6186
▁daramay	-10.6186
▁bitanay	-10.6186
▁مافیا	-10.6186
▁نقوی	-10.6187
▁فیچر	-10.619
▁سراج	-10.6191
▁جہانگیر	-10.6191
▁برانڈ	-10.6192
▁پولنگ	-10.6192
▁بقید	-10.6193
▁گاڑیاں	-10.6197
▁کمرے	-10.6199
▁آرام	-10.6201
▁وَ	-10.6206
▁soda	-10.6208
رٹ	-10.6224
▁فورم	-10.6225
▁حفاظتی	-10.6225
▁mulki	-10.6228
▁kiya	-10.6247
▁روی	-10.6253
▁دکھا	-10.6255
▁مالیت	-10.6268
▁ہوائی	-10.6271
▁تاجر	-10.6272
رون	-10.6274
▁Ne	-10.6283
▁مزدور	-10.6288
▁zan	-10.6293
اروں	-10.6297
▁مفاد	-10.6304
▁پذیر	-10.6305
▁word	-10.6306
▁Tafseer	-10.6307
▁aahista	-10.6307
▁jitni	-10.6307
▁muhim	-10.6307
▁tahazeeb	-10.6307
▁الطاف	-10.6307
▁taalib	-10.6307
▁مفید	-10.6307
▁aadam	-10.6307
▁qareeb	-10.6307
▁شہرت	-10.6307
▁اشارہ	-10.6307
▁پردیش	-10.6307
▁کیپٹن	-10.6307
▁kinare	-10.6307
▁تاخیر	-10.6307
▁تحسین	-10.6308
▁momin	-10.6309
▁حلقہ	-10.6309
▁chhat	-10.6309
▁khatoon	-10.631
آپ	-10.631
▁سہیل	-10.6311
▁kharch	-10.6311
▁زہر	-10.6314
▁قر	-10.6314
▁maraslay	-10.6315
▁ممتاز	-10.6315
▁یونس	-10.6315
▁اٹھانے	-10.6317
▁لگنے	-10.6318
▁مخالفت	-10.6319
▁mahi	-10.632
▁وقار	-10.6321
▁parhte	-10.6321
وڈ	-10.6323
▁banayen	-10.6324
eel	-10.6327
...	-10.6336
▁likhta	-10.6336
الہ	-10.6336
▁عین	-10.6337
▁آکر	-10.6338
▁شکر	-10.6338
▁khari	-10.6339
▁مک	-10.6348
▁seen	-10.6359
▁زون	-10.6374
▁کردیں	-10.6379
اپنے	-10.6381
▁win	-10.6388
▁قرض	-10.6393
▁اداکاری	-10.6395
▁Sir	-10.6403
▁Pa	-10.6404
▁ترین۔	-10.6406
جز	-10.6411
▁موضوع	-10.6419
▁آس	-10.642
▁Rehma	-10.6423
▁اعتراض	-10.6426
▁سنچری	-10.6426
▁دھند	-10.6429
▁Balochistan	-10.6429
▁Jameel	-10.6429
▁pearl	-10.6429
▁poucheen	-10.6429
▁sarmaya	-10.6429
▁ریمارکس	-10.6429
▁مینجمنٹ	-10.6429
▁ہڑتال	-10.6429
▁بزرگ	-10.6429
▁شوکت	-10.6429
▁jarahi	-10.6429
▁gilah	-10.6429
▁ginti	-10.6429
▁KOI	-10.643
▁saamna	-10.6431
▁جمیل	-10.6431
▁شراب	-10.6431
▁Raja	-10.6432
▁kum	-10.6433
چار	-10.6433
▁میونسپل	-10.6433
▁وزن	-10.6433
▁وکلاء	-10.6435
▁آئل	-10.6435
▁سمجھتے	-10.6435
▁bolti	-10.6436
▁tabhi	-10.6436
▁درجنوں	-10.6439
▁insaan	-10.644
▁May	-10.6441
▁پوچھا	-10.6447
▁قادری	-10.6454
▁ہال	-10.6457
▁shart	-10.6462
▁con	-10.6464
▁کلک	-10.6464
▁سنٹر	-10.647
▁hoye	-10.6472
▁sabz	-10.6473
▁nazr	-10.6476
▁salamat	-10.6477
▁نمائندہ	-10.6479
▁bandh	-10.6479
▁pee	-10.648
▁روکا	-10.6485
حال	-10.6486
▁راز	-10.6489
▁فریق	-10.6492
▁ڈاکٹروں	-10.6492
du	-10.6493
▁کاسٹ	-10.6493
▁tea	-10.6494
▁جائیں۔	-10.6495
رات	-10.6496
▁سلام	-10.6499
▁rai	-10.6503
▁kala	-10.6503
▁یوکرین	-10.6507
▁ہوم	-10.6508
▁منعقدہ	-10.6543
▁سپورٹ	-10.6543
▁پھینک	-10.6548
▁فضا	-10.6551
▁وین	-10.6551
▁قاتل	-10.6551
▁wasal	-10.6552
▁Aldeen	-10.6552
▁Shoiab	-10.6552
▁admion	-10.6552
▁control	-10.6552
▁libaas	-10.6552
▁pouchye	-10.6552
▁خدشہ	-10.6552
▁ساڑھے	-10.6552
▁مشرف	-10.6552
▁سرینگر	-10.6552
▁مساجد	-10.6553
▁kirnay	-10.6553
▁khatrah	-10.6554
▁فائز	-10.6554
▁ladi	-10.6558
▁خبردار	-10.6561
▁وسطی	-10.6563
▁پہنچایا	-10.6564
▁shaad	-10.6564
▁ayi	-10.6564
▁قیدیوں	-10.6565
▁ویئر	-10.6566
▁دہشتگردی	-10.6566
▁پابندیاں	-10.6567
▁khulay	-10.6569
▁jany	-10.657
یاد	-10.6574
▁raast	-10.6576
▁سوا	-10.6583
▁asar	-10.6586
دان	-10.6586
▁سنہ	-10.6592
▁Sy	-10.6603
▁janan	-10.6604
▁ٹرک	-10.6605
▁karwai	-10.6614
▁donon	-10.6615
31	-10.6618
▁مارا	-10.6619
▁daali	-10.6623
don	-10.6629
مک	-10.6637
70	-10.6642
▁ناکامی	-10.6649
▁وزیرِ	-10.6653
ائو	-10.6654
▁رحمت	-10.6658
▁دیکھے	-10.6659
نگی	-10.6659
▁امت	-10.6662
▁امین	-10.6666
▁ٹوئٹ	-10.6667
▁اڑ	-10.6667
▁مہر	-10.6674
▁hamla	-10.6677
▁imthehaan	-10.6677
▁madinah	-10.6677
▁shohar	-10.6677
▁takhleeq	-10.6677
▁حوثی	-10.6677
▁عقیدت	-10.6677
▁مطالبات	-10.6677
▁مقدس	-10.6677
▁مظفر	-10.6677
▁حماس	-10.6677
▁بلدیہ	-10.6677
▁bhaieyon	-10.6677
▁Amaan	-10.6678
▁جلسہ	-10.6678
▁رشتہ	-10.6678
ds	-10.6678
▁کھڑا	-10.6678
▁کےلئے	-10.6678
ڑہ	-10.668
▁2007	-10.6681
▁نمک	-10.6682
▁یک	-10.6682
▁ایڈووکیٹ	-10.6682
▁باد	-10.6683
▁عاصم	-10.6683
▁ast	-10.6684
▁تعیناتی	-10.6685
▁شعیب	-10.6687
▁باغیوں	-10.6687
▁layi	-10.6688
▁ویزا	-10.6688
▁chandni	-10.6689
▁حجاب	-10.6689
▁سانس	-10.6689
▁bolnay	-10.6689
▁سابقہ	-10.6691
▁جیتنے	-10.6694
▁مون	-10.6699
▁خصوصیات	-10.6706
▁chori	-10.6707
▁پک	-10.6707
▁پت	-10.6709
▁صلاحیتوں	-10.6714
▁mazah	-10.6716
▁So	-10.6718
▁کیشن	-10.6719
▁لیس	-10.6721
▁ہٹا	-10.6728
▁معیاری	-10.6731
▁بارشوں	-10.6732
▁mita	-10.6736
▁لائیو	-10.6736
رپورٹ	-10.6742
رہے	-10.6745
ڈاکٹر	-10.675
▁maar	-10.6761
تک	-10.6763
▁bs	-10.6764
be	-10.6771
▁تھانے	-10.6771
▁پیج	-10.6777
▁kaun	-10.6777
▁basa	-10.6778
کان	-10.6781
▁farmai	-10.6782
▁واردات	-10.6785
▁muntaqil	-10.6786
▁جوان	-10.6791
▁doctor	-10.6798
▁شہ	-10.6801
▁کمانڈ	-10.6803
▁ghabra	-10.6803
▁bardasht	-10.6804
▁dlhara	-10.6804
▁muqarrar	-10.6804
▁sadiiyon	-10.6804
▁type	-10.6804
▁افتخار	-10.6804
▁بالخصوص	-10.6804
▁معائنہ	-10.6804
▁ہنگامی	-10.6804
▁asshk	-10.6804
▁mehal	-10.6804
▁اسکواڈ	-10.6804
▁زمرہ	-10.6804
▁پندرہ	-10.6804
alehe	-10.6804
▁ہوچکے	-10.6804
▁jinhon	-10.6804
▁ہوجائیں	-10.6804
▁aloy	-10.6804
▁مستحق	-10.6804
▁پھول	-10.6805
▁ummat	-10.6806
▁noshi	-10.6806
▁chaak	-10.6807
▁سختی	-10.681
مال	-10.6811
▁musalmanoon	-10.6811
▁namak	-10.6812
▁قائدین	-10.6813
▁form	-10.6813
▁امپائرنگ	-10.6816
▁ڈالنے	-10.6817
▁پہنچانے	-10.6825
▁rahy	-10.6826
▁اسٹاف	-10.683
▁aapas	-10.6831
▁مردوں	-10.6837
▁ad	-10.6841
▁۔انہوں	-10.6846
▁sona	-10.6848
▁اندازہ	-10.6849
▁hote	-10.6856
▁sham	-10.6858
tal	-10.6863
▁سیمی	-10.6866
▁banti	-10.6872
عمران	-10.6882
▁دفاعی	-10.6883
▁sama	-10.6896
رنز	-10.6899
یے	-10.69
▁ذیل	-10.6907
▁پیک	-10.691
▁samaa	-10.6911
tion	-10.6914
▁تنگ	-10.6915
▁roos	-10.6917
▁بھول	-10.6918
▁42	-10.692
▁روایتی	-10.6923
▁bikhar	-10.6924
▁سفارش	-10.6929
▁اَ	-10.6932
▁andaleeb	-10.6932
▁description	-10.6932
▁munfarid	-10.6932
▁raqam	-10.6932
▁sahafi	-10.6932
▁turkey	-10.6932
▁zareya	-10.6932
▁انفارمیشن	-10.6932
▁ساؤتھ	-10.6932
▁سپلائی	-10.6932
▁عاشق	-10.6932
▁وجوہات	-10.6932
▁talwar	-10.6932
▁امتیاز	-10.6932
▁حصوں	-10.6932
▁عظمیٰ	-10.6932
▁کالونی	-10.6932
▁پرامن	-10.6933
▁raste	-10.6934
▁daryaft	-10.6934
▁Saif	-10.6934
▁ربط	-10.6935
▁مفادات	-10.6936
▁sunaein	-10.6936
▁khawar	-10.6938
▁الحال	-10.6939
▁safhaat	-10.6942
▁بھا	-10.6942
▁بحریہ	-10.6944
نڈا	-10.6944
▁تیاریاں	-10.6946
▁khaye	-10.6949
▁hatt	-10.695
▁aesa	-10.6951
▁chalne	-10.6951
▁اوورز	-10.6952
▁جناب	-10.6954
,000	-10.6955
▁حکمرانوں	-10.6962
▁مارک	-10.6975
▁قیمتی	-10.6976
▁card	-10.698
▁sani	-10.698
▁انجن	-10.6981
▁ملتی	-10.6983
▁dhal	-10.6984
▁پیار	-10.6986
▁kashi	-10.6991
▁گری	-10.6994
gan	-10.7002
جبکہ	-10.701
▁47	-10.7031
▁55	-10.7035
▁خاموش	-10.7036
▁الب	-10.704
▁mashriq	-10.7045
ایف	-10.7045
▁عمرہ	-10.7046
▁دہائی	-10.7048
▁مرتب	-10.7051
▁hata	-10.7052
▁jinhein	-10.7062
▁lehjey	-10.7062
▁mulaika	-10.7062
▁qoul	-10.7062
▁saahib	-10.7062
▁zouq	-10.7062
▁استدعا	-10.7062
▁ثاقب	-10.7062
▁دھماکہ	-10.7062
▁سکریٹری	-10.7062
▁فرائض	-10.7062
▁پرائیویٹ	-10.7062
▁کارپوریشن	-10.7062
▁raqs	-10.7062
▁saghar	-10.7062
▁تردید	-10.7062
▁حساب	-10.7062
▁منفرد	-10.7062
▁کیلومیٹر	-10.7062
▁nakaam	-10.7062
▁پیٹرول	-10.7062
▁ولد	-10.7062
▁صفدر	-10.7063
▁bahana	-10.7063
▁وزرائے	-10.7063
▁teesri	-10.7064
▁لانچ	-10.7064
▁پچاس	-10.7066
▁ائیر	-10.7069
رب	-10.707
▁سبز	-10.7072
▁واٹر	-10.7072
▁فیض	-10.7074
ھم	-10.7075
ڈز	-10.7075
▁nigahon	-10.7077
▁dein	-10.708
▁ناگ	-10.708
▁ہوئیں	-10.7083
▁کرو	-10.7084
▁زی	-10.7104
▁عہدہ	-10.7106
▁حاضر	-10.7106
▁لیگی	-10.7108
▁واقعی	-10.711
▁آرٹ	-10.7118
yat	-10.7126
▁kehtay	-10.7126
ترا	-10.7137
▁اسلم	-10.7138
▁mit	-10.7155
▁انکے	-10.716
▁J	-10.7161
▁hadd	-10.7162
حت	-10.7167
وین	-10.7167
▁ضمن	-10.717
شم	-10.7184
▁data	-10.7185
▁sard	-10.7186
▁purana	-10.7189
▁ڈس	-10.7189
▁فعال	-10.7192
▁choo	-10.7192
▁Manzoor	-10.7194
▁TOU	-10.7194
▁Taloot	-10.7194
▁aindah	-10.7194
▁akailey	-10.7194
▁francesi	-10.7194
▁karzzzz	-10.7194
▁khizaa	-10.7194
▁moseeqi	-10.7194
▁mughfirat	-10.7194
▁shagufata	-10.7194
▁waaqif	-10.7194
▁بدترین	-10.7194
▁کثیر	-10.7194
▁سفید	-10.7194
▁open	-10.7194
▁لیاقت	-10.7194
▁انچارج	-10.7194
▁بادشاہ	-10.7194
▁البتہ	-10.7194
▁شیعہ	-10.7194
▁شہبازشریف	-10.7194
▁عنوان	-10.7196
▁ie	-10.7197
▁ہوسکتی	-10.7197
▁dala	-10.7202
▁rait	-10.7204
ائیڈ	-10.7216
▁دیکھنا	-10.7218
▁ہوئیں۔	-10.7218
port	-10.7219
▁لین	-10.7221
▁بنچ	-10.7223
▁chalti	-10.7225
▁منیر	-10.7225
▁مٹی	-10.7229
▁لی۔	-10.7239
▁bhara	-10.724
▁بھرتی	-10.7241
▁ایپلی	-10.7243
▁numaya	-10.7258
▁ہن	-10.7265
نمائندہ	-10.7273
آباد	-10.7274
▁پینے	-10.7289
▁الح	-10.7292
▁ترجیح	-10.7297
▁بھیجا	-10.7305
▁markaz	-10.731
▁agla	-10.7318
▁teesra	-10.7319
▁عسکری	-10.732
ہیں	-10.7324
▁گروہ	-10.7324
▁jal	-10.7324
ژ	-10.7327
▁dopehar	-10.7327
▁judai	-10.7327
▁nasiyaat	-10.7327
▁sorry	-10.7327
▁tabassum	-10.7327
▁takleef	-10.7327
▁احسان	-10.7327
▁تبصرہ	-10.7327
▁لہٰذا	-10.7327
▁ویژن	-10.7327
▁surkh	-10.7327
▁ورلڈکپ	-10.7327
▁achanak	-10.7327
▁علوی	-10.7327
▁گوادر	-10.7327
▁نشریات	-10.7327
▁jawan	-10.7329
▁seekhnay	-10.7332
▁جشن	-10.7332
▁منایا	-10.7332
▁جمال	-10.7335
▁ٹاک	-10.7335
▁chaal	-10.7336
▁gy	-10.7336
▁shumali	-10.7337
▁41	-10.7337
کشن	-10.7345
▁jumlay	-10.7347
▁تقرری	-10.7352
rch	-10.7369
▁غذائی	-10.7374
ارا	-10.7382
▁پلانٹ	-10.7387
▁کمال	-10.7387
▁چھپ	-10.7393
▁V	-10.7396
جے	-10.7398
▁نقش	-10.7409
ھو	-10.7416
▁ہے۔اس	-10.7422
▁bhag	-10.7432
▁جذبات	-10.7435
09	-10.744
▁dara	-10.744
▁saktay	-10.7441
▁خل	-10.745
▁۔اس	-10.7451
اسی	-10.7453
▁run	-10.7456
وزیر	-10.7462
▁Iftikhar	-10.7462
▁Short	-10.7462
▁dheyaan	-10.7462
▁different	-10.7462
▁molvi	-10.7462
▁record	-10.7462
▁shiraakat	-10.7462
▁ایئرپورٹ	-10.7462
▁تعزیت	-10.7462
▁دروازے	-10.7462
▁زلمی	-10.7462
▁فوائد	-10.7462
▁waqat	-10.7462
▁وٹامن	-10.7462
▁گندم	-10.7462
▁badshah	-10.7462
▁inayat	-10.7462
▁rabita	-10.7462
▁انٹیلی	-10.7462
▁unko	-10.7462
▁ڈیزل	-10.7462
▁chean	-10.7462
▁فیڈریشن	-10.7462
▁ghazi	-10.7463
▁seenah	-10.7464
▁قلم	-10.7464
tha	-10.7464
▁charah	-10.7465
▁raton	-10.7465
▁منسٹر	-10.7466
▁قبر	-10.7468
▁barson	-10.747
▁کشتی	-10.7471
▁Or	-10.7476
▁maqamat	-10.7479
▁labon	-10.7481
▁سرچ	-10.7481
▁Ko	-10.7485
▁اکاؤنٹس	-10.7486
وے	-10.7488
▁چھین	-10.7491
▁dekhaya	-10.7493
95	-10.7497
▁اخلاقی	-10.7499
▁ھ	-10.75
▁جوڑے	-10.7502
▁جام	-10.7507
▁بیماریوں	-10.7508
▁انڈر	-10.7511
▁سکولوں	-10.7519
خر	-10.7524
▁taar	-10.7527
▁ٹیک	-10.7529
یکٹر	-10.753
uf	-10.7531
ent	-10.7537
▁خا	-10.7541
عدالت	-10.7553
▁ئی	-10.7555
▁عامہ	-10.7561
▁قد	-10.7566
▁موسمیات	-10.7574
▁ہیلی	-10.7577
▁kamon	-10.758
▁ikhlaq	-10.7582
▁تحقیقاتی	-10.7583
▁کینٹ	-10.7583
▁sey	-10.7586
▁sahara	-10.759
▁marasla	-10.759
▁janwar	-10.7593
▁جوہر	-10.7598
▁baqaida	-10.7598
▁Wikidata	-10.7599
▁chamak	-10.7599
▁content	-10.7599
▁hakeem	-10.7599
▁huroof	-10.7599
▁mehdood	-10.7599
▁rootti	-10.7599
▁sameit	-10.7599
▁بدولت	-10.7599
▁عائشہ	-10.7599
▁قونصل	-10.7599
▁مشتبہ	-10.7599
▁گراؤنڈ	-10.7599
▁یونائیٹڈ	-10.7599
▁یکجہتی	-10.7599
▁aunti	-10.7599
▁surah	-10.7599
▁final	-10.7599
▁نہایت	-10.7599
▁aalim	-10.7599
▁urr	-10.7599
▁اتنے	-10.7599
▁کوہلی	-10.76
▁kaali	-10.76
شل	-10.76
▁یادگار	-10.76
▁کےلیے	-10.7601
▁شوگر	-10.7601
▁lai	-10.7601
▁boltay	-10.7602
▁dhamakay	-10.7603
ھی	-10.7605
▁huwa	-10.7605
▁mere	-10.7605
▁gul	-10.7606
▁وزراء	-10.7606
▁انسپکٹر	-10.7606
▁won	-10.7607
▁بیگم	-10.7609
▁ڈھ	-10.7609
▁کامنز	-10.761
▁Az	-10.7612
▁نکلنے	-10.7613
▁bari	-10.7614
▁markazi	-10.7617
▁maghribi	-10.7624
▁poo	-10.763
▁آپشن	-10.7634
▁ئے	-10.7638
عام	-10.7638
▁bahu	-10.7638
200	-10.7641
▁43	-10.7643
▁Yeh	-10.7644
▁رول	-10.7651
▁کرکٹرز	-10.766
▁اسکے	-10.7667
ڈل	-10.767
45	-10.7687
کری	-10.7688
▁ساتھیوں	-10.7694
یدہ	-10.7696
▁charh	-10.7698
▁bit	-10.7714
▁بھال	-10.7721
▁قرارداد	-10.7721
▁barha	-10.7728
▁ڈاکٹرز	-10.7731
▁جلا	-10.7736
▁mutasir	-10.7737
▁شفاف	-10.7737
۔واضح	-10.7738
▁bairooni	-10.7738
▁hadaayat	-10.7738
▁khuloos	-10.7738
▁usmaan	-10.7738
▁دیپالپور	-10.7738
▁غائب	-10.7738
▁پرنسپل	-10.7738
▁ادھر	-10.7738
▁sabiq	-10.7738
▁kidhar	-10.7738
▁مہارت	-10.7738
▁بشیر	-10.7739
▁جارج	-10.7739
▁lga	-10.774
▁mahol	-10.774
▁lar	-10.7741
▁جیو	-10.7741
▁الحسن	-10.7742
▁65	-10.7742
▁امتحانات	-10.7743
▁aadhi	-10.7745
فل	-10.7746
▁Di	-10.7748
▁shehron	-10.7748
▁بچنے	-10.775
▁اسکیم	-10.7752
▁baam	-10.7753
▁jai	-10.7757
▁صبر	-10.7761
▁مقررہ	-10.7763
▁paal	-10.7766
▁phal	-10.7769
lt	-10.777
▁ستار	-10.7771
▁کرپٹ	-10.7777
گز	-10.7782
▁links	-10.7782
▁lafzon	-10.7784
▁poor	-10.7792
▁qadri	-10.7795
باد	-10.78
▁ہل	-10.78
▁wahn	-10.7802
▁ai	-10.7814
▁lagana	-10.7814
▁فونز	-10.7828
داد	-10.7842
iy	-10.7842
▁مسک	-10.7844
▁team	-10.7847
▁ریڈیو	-10.7853
▁37	-10.7855
▁بحری	-10.7866
▁جمہوری	-10.7867
▁ثنا	-10.7876
گار	-10.7877
▁Majeed	-10.7879
▁girftar	-10.7879
▁guzri	-10.7879
▁paighamaat	-10.7879
▁المبارک	-10.7879
▁بوجھ	-10.7879
▁رجسٹریشن	-10.7879
▁لفظ	-10.7879
▁khuli	-10.7879
▁shokh	-10.7879
▁وعدہ	-10.7879
▁گیلانی	-10.7879
▁ہوچکا	-10.7879
▁منصب	-10.7879
▁sarhad	-10.7879
▁حبیب	-10.7879
▁فٹبال	-10.7879
▁ایریا	-10.788
▁ناظم	-10.788
▁روحانی	-10.788
▁نقاب	-10.788
▁نصف	-10.7881
▁فرض	-10.7882
▁bator	-10.7884
▁sood	-10.7884
▁cricketer	-10.7886
▁ڈیڑھ	-10.7887
▁آرہی	-10.7887
▁runs	-10.7889
▁پیکج	-10.7889
چل	-10.7889
▁عبوری	-10.789
▁فنڈز	-10.7892
▁Woh	-10.7892
انت	-10.7897
▁Mo	-10.7898
▁ہوگئی۔	-10.7905
▁sakay	-10.7911
▁داخلے	-10.7912
▁پیرا	-10.7912
▁کروں	-10.7918
▁سیف	-10.7921
▁nawa	-10.7926
آج	-10.7929
▁aeen	-10.7932
▁dushmani	-10.7933
▁تل	-10.7935
▁Jo	-10.7938
▁لیکر	-10.7943
▁پھ	-10.7952
▁دست	-10.7963
▁خاندانوں	-10.7965
▁khushk	-10.7973
▁Ye	-10.7976
ئیں۔	-10.798
جل	-10.7986
▁شمال	-10.7996
▁سیاحت	-10.7997
▁خاک	-10.7998
▁jazba	-10.8006
▁فنڈ	-10.8015
▁چھٹی	-10.8016
▁rafta	-10.8019
▁parhay	-10.8019
▁mouj	-10.802
▁afsana	-10.8022
▁auqaat	-10.8022
▁ehtram	-10.8022
▁makhsoos	-10.8022
▁muqaddar	-10.8022
▁mutalea	-10.8022
▁اخبارتازہ	-10.8022
▁اورنگزیب	-10.8022
▁دفاتر	-10.8022
▁نمائندے	-10.8022
▁ہفتوں	-10.8022
▁rukhsat	-10.8022
▁eian	-10.8022
▁ترتیب	-10.8022
▁زائرین	-10.8022
▁YEH	-10.8022
▁علامت	-10.8022
▁kareeb	-10.8022
ook	-10.8023
▁طیب	-10.8024
▁درکار	-10.8024
▁amar	-10.8024
▁ڈبل	-10.8025
▁خورشید	-10.8026
▁چیئر	-10.8028
▁lagayen	-10.8029
▁باکس	-10.8031
کنگ	-10.8031
▁بھیجنے	-10.8031
ssi	-10.8033
▁lagaye	-10.8035
▁seekha	-10.8039
▁چھوڑنے	-10.8042
▁رہنا	-10.8045
▁رویہ	-10.805
▁rha	-10.8054
▁sochnay	-10.8055
▁ٹھ	-10.8059
▁کہنے	-10.8066
▁معاونت	-10.807
▁ہےکہ	-10.8077
▁aala	-10.8078
▁can	-10.808
▁شہریت	-10.808
ٹرز	-10.8085
ef	-10.8089
41	-10.8091
▁300	-10.8096
▁خواہ	-10.8097
یٹر	-10.8098
we	-10.8099
▁سرحدی	-10.8103
▁chak	-10.811
▁پیرس	-10.811
▁کوڈ	-10.8112
▁shehri	-10.8114
▁dilon	-10.812
▁totay	-10.8121
مَ	-10.8133
زئی	-10.8137
لائی	-10.8138
▁ملز	-10.8139
▁انقلاب	-10.814
▁مغرب	-10.814
▁عہدیدار	-10.8142
▁pic	-10.8143
▁تنازع	-10.8152
▁چلی	-10.8156
▁zinda	-10.8157
امہ	-10.816
▁mansoob	-10.8165
witter	-10.8167
▁Zafar	-10.8167
▁awaami	-10.8167
▁buhat	-10.8167
▁imarat	-10.8167
▁khubsoorat	-10.8167
▁lakhoon	-10.8167
▁mansoor	-10.8167
▁manzir	-10.8167
▁mithai	-10.8167
▁nataij	-10.8167
▁sarbarah	-10.8167
▁setaaray	-10.8167
▁ulfat	-10.8167
▁آسٹریلوی	-10.8167
▁تجربے	-10.8167
▁تشخیص	-10.8167
▁متبادل	-10.8167
▁متحرک	-10.8167
▁چانسلر	-10.8167
▁درخت	-10.8167
▁arhay	-10.8167
▁bhichar	-10.8167
▁qist	-10.8167
▁پرفارمنس	-10.8167
▁وسطیٰ	-10.8167
▁القرآن	-10.8167
▁اٹلی	-10.8168
▁adbi	-10.8168
▁Adad	-10.8168
▁chahti	-10.8168
▁نوازا	-10.8169
ther	-10.817
▁ولیم	-10.817
▁ماسٹر	-10.817
▁niaz	-10.8171
▁مظاہروں	-10.8171
▁لڑکے	-10.8171
▁غیرملکی	-10.8174
▁نشر	-10.8175
▁غنی	-10.8175
▁mushkilaat	-10.8176
▁subhan	-10.8176
▁eyan	-10.8178
▁ٹریننگ	-10.8181
▁poochna	-10.8182
▁لیڈی	-10.8182
▁گرنے	-10.8184
▁خودکشی	-10.8186
▁کور	-10.8188
▁masha	-10.8196
▁بناکر	-10.8198
▁سود	-10.8201
▁سفارتی	-10.8205
▁باس	-10.8211
▁دیدی	-10.8239
zah	-10.824
▁لائے	-10.8251
رام	-10.8255
مد	-10.8258
کراچی	-10.826
▁‘‘	-10.8264
▁khan	-10.8276
▁وفاق	-10.829
▁raas	-10.829
۔اس	-10.8292
▁آلو	-10.8303
35	-10.8303
▁charha	-10.831
▁Canton	-10.8314
▁aliiiii	-10.8314
▁askari	-10.8314
▁buut	-10.8314
▁hijrat	-10.8314
▁khiladion	-10.8314
▁makaan	-10.8314
▁mazdoor	-10.8314
▁mumbar	-10.8314
▁mustaqbil	-10.8314
▁pucho	-10.8314
▁tashreef	-10.8314
▁technology	-10.8314
▁wapis	-10.8314
▁شواہد	-10.8314
▁قابض	-10.8314
▁نزدیک	-10.8314
▁himayat	-10.8314
▁sancha	-10.8314
▁hajj	-10.8314
▁سالگرہ	-10.8314
▁نجات	-10.8314
▁HD	-10.8314
▁خٹک	-10.8315
▁جاسکتی	-10.8315
▁خریداری	-10.8316
▁جرمانے	-10.8316
▁mahinay	-10.8317
▁شائر	-10.8318
▁khafa	-10.8319
▁kahiye	-10.832
ذا	-10.8321
ction	-10.8322
▁جگ	-10.8323
▁uj	-10.8327
▁جانوروں	-10.8328
▁tabahi	-10.833
▁had	-10.8332
قب	-10.8334
▁مزاری	-10.8335
06	-10.8337
▁inka	-10.8337
ٹیو	-10.8337
▁منا	-10.8339
▁honi	-10.834
▁گیٹ	-10.8345
▁saja	-10.8346
04	-10.8349
▁مختار	-10.835
▁کاموں	-10.8354
▁baja	-10.8356
▁چاہے	-10.8368
▁پتا	-10.8371
گے	-10.8374
▁بلڈ	-10.8377
▁karay	-10.839
▁gaah	-10.8393
▁hokar	-10.8394
▁jaya	-10.8398
▁آگاہی	-10.8398
کروڑ	-10.8409
برا	-10.841
وزیراعظم	-10.841
گئی	-10.8417
▁ہسپتالوں	-10.8424
▁زیب	-10.8424
▁نما	-10.8425
▁کاپی	-10.8429
شان	-10.8433
▁mal	-10.8435
▁دکان	-10.8438
فیصل	-10.8444
وو	-10.8459
▁abb	-10.846
▁دستاویز	-10.8462
▁Abdul	-10.8463
▁Islamabad	-10.8463
▁Maroof	-10.8463
▁Sultan	-10.8463
▁darwazay	-10.8463
▁degree	-10.8463
▁dhamki	-10.8463
▁farmaaish	-10.8463
▁hospital	-10.8463
▁operation	-10.8463
▁tawaqqa	-10.8463
▁فاؤنڈیشن	-10.8463
▁معذور	-10.8463
▁منصور	-10.8463
▁Amaar	-10.8463
▁غیرقانونی	-10.8463
▁حساس	-10.8463
▁millti	-10.8463
▁ہوچکی	-10.8463
▁زاہد	-10.8463
▁sawab	-10.8463
▁پرچم	-10.8463
▁اجاگر	-10.8463
▁aajay	-10.8464
▁khayi	-10.8465
▁حرم	-10.8465
▁chahoon	-10.8466
▁qadam	-10.8466
▁شرط	-10.8467
▁نرم	-10.8468
▁matan	-10.847
▁قاضی	-10.8471
▁منانے	-10.8475
▁دلی	-10.8477
▁خلا	-10.8478
▁کھلے	-10.8482
▁عہدیداروں	-10.8482
▁baen	-10.8484
▁مرنے	-10.8484
▁lagen	-10.8485
▁اجتماعی	-10.8489
▁موسمیاتی	-10.8492
▁ایوی	-10.8492
یلا	-10.8499
▁kaamil	-10.85
▁zaya	-10.8501
▁yaaro	-10.8503
▁chura	-10.8509
▁piya	-10.851
▁mush	-10.852
07	-10.8521
▁saf	-10.8523
▁پڑا۔	-10.8526
▁رحم	-10.8526
▁گیارہ	-10.8533
ac	-10.8533
عوام	-10.8534
▁ہونگے	-10.854
قابل	-10.8545
▁گنا	-10.8555
mb	-10.8555
▁wi	-10.8557
▁پین	-10.8559
صفحہ	-10.856
27	-10.856
صوبائی	-10.856
▁کاٹ	-10.857
▁1.	-10.8572
shn	-10.8573
ھے	-10.8578
▁کہاہے	-10.8583
▁tareekhi	-10.8587
▁ث	-10.8593
▁جنت	-10.86
▁haadsa	-10.8605
▁darakht	-10.8607
وئی	-10.8609
▁پھنس	-10.8614
▁bakhash	-10.8614
▁english	-10.8614
▁faryaad	-10.8614
▁idaray	-10.8614
▁install	-10.8614
▁jheel	-10.8614
▁mamnon	-10.8614
▁naazuk	-10.8614
▁newzea	-10.8614
▁sagheer	-10.8614
▁shahadat	-10.8614
▁vndoz	-10.8614
▁تلنگانہ	-10.8614
▁طیارہ	-10.8614
▁نوعیت	-10.8614
▁dhair	-10.8614
▁nikah	-10.8614
▁aizaz	-10.8614
▁boht	-10.8614
▁یوٹیوب	-10.8614
▁case	-10.8614
▁islaah	-10.8614
▁ترسیل	-10.8614
▁تہران	-10.8615
▁firqa	-10.8615
▁house	-10.8615
▁رضی	-10.8615
▁سٹار	-10.8615
▁پٹرولیم	-10.8615
▁لائٹ	-10.8615
▁یہودی	-10.8615
▁jaakar	-10.8615
▁diary	-10.8615
▁کھڑی	-10.8616
▁مرزا	-10.8616
▁قلندرز	-10.8616
▁تیسرا	-10.8616
▁hawala	-10.8616
▁مقبولیت	-10.8617
▁insanon	-10.8617
دور	-10.8617
▁ورکرز	-10.8618
▁محسن	-10.8618
▁کیجیے	-10.862
▁azhar	-10.8621
▁ریٹائرڈ	-10.8622
▁روایت	-10.8625
▁tanz	-10.8625
▁uthaya	-10.8626
▁خریدنے	-10.8627
▁بلایا	-10.8628
▁mat	-10.8632
▁سون	-10.8634
▁amli	-10.8637
▁nasr	-10.8638
▁گریز	-10.864
▁ادب	-10.8645
▁beet	-10.8655
▁kaaba	-10.8661
▁زد	-10.8662
▁yahe	-10.8664
گاہ	-10.8669
▁wou	-10.8672
▁this	-10.8672
ais	-10.8688
▁سرور	-10.869
▁مرضی	-10.8693
ers	-10.8704
rs	-10.871
تری	-10.8713
▁گینگ	-10.8715
▁mach	-10.872
▁سنت	-10.8723
▁شاعر	-10.8741
الدین	-10.8742
▁اجتماع	-10.8742
▁گلی	-10.8744
▁دیکھی	-10.875
kl	-10.8755
▁متفق	-10.8757
▁April	-10.8768
▁Farakh	-10.8768
▁Ilmi	-10.8768
▁June	-10.8768
▁dareaye	-10.8768
▁jamhoriat	-10.8768
▁jummay	-10.8768
▁khususiyaat	-10.8768
▁misrey	-10.8768
▁samjhoo	-10.8768
▁اشاعت	-10.8768
▁علیحدگی	-10.8768
▁لطیف	-10.8768
▁مرحلہ	-10.8768
▁saadgi	-10.8768
▁اکیڈمی	-10.8768
▁جائیداد	-10.8768
▁معصوم	-10.8768
▁ahwaal	-10.8768
▁sanam	-10.8768
▁dekhatii	-10.8768
▁kardey	-10.8768
▁وائٹ	-10.8768
۔تفصیلات	-10.8769
▁maula	-10.8769
▁rehnuma	-10.8769
▁batayi	-10.8769
▁hasil	-10.877
▁dhund	-10.877
جائے	-10.877
▁چرچ	-10.8771
▁پشت	-10.8771
▁gaaye	-10.8772
▁bhuto	-10.8773
▁مہیا	-10.8773
▁کاپٹر	-10.8774
▁ryas	-10.8774
▁بلین	-10.8774
▁ہٹانے	-10.8776
▁work	-10.8776
▁جمعیت	-10.8777
▁ڈاکو	-10.878
▁یوتھ	-10.878
▁کرائم	-10.8784
▁دلیل	-10.8785
▁کسانوں	-10.8787
▁nateejay	-10.8789
▁sochen	-10.8792
▁دوستی	-10.8794
▁شری	-10.8797
▁کورس	-10.8797
▁tk	-10.8799
لَ	-10.8801
▁مالکان	-10.8812
▁کیے۔	-10.8813
▁بھاگ	-10.8821
▁cheezon	-10.8831
▁قیمتیں	-10.8832
69	-10.8833
▁honton	-10.8834
▁koo	-10.8846
▁section	-10.8848
▁hawai	-10.8854
لیس	-10.8854
/20	-10.8856
فٹ	-10.8868
قومی	-10.8871
میڈیا	-10.8872
▁تھائی	-10.8874
02	-10.8874
▁دب	-10.8887
جد	-10.8889
▁ثقافت	-10.8898
▁کپتانی	-10.8906
▁اِن	-10.8909
▁tareek	-10.8915
▁منتقلی	-10.8917
▁tabah	-10.8917
▁مہنگا	-10.8923
▁ibtida	-10.8924
▁APP	-10.8924
▁NAY	-10.8924
▁bakhair	-10.8924
▁bharpoor	-10.8924
▁budh	-10.8924
▁duroood	-10.8924
▁haqeeqi	-10.8924
▁mawaad	-10.8924
▁mustaqil	-10.8924
▁option	-10.8924
▁soobay	-10.8924
▁tazkara	-10.8924
▁udasi	-10.8924
▁باؤلر	-10.8924
▁sajda	-10.8924
▁taab	-10.8924
▁تائیوان	-10.8924
▁kaghaz	-10.8924
▁نارتھ	-10.8924
▁alag	-10.8924
▁indian	-10.8925
▁اندوز	-10.8925
▁walidain	-10.8926
▁مالیاتی	-10.8926
▁ثانی	-10.8927
▁deedar	-10.8928
رنگ	-10.8929
▁jazbaat	-10.8931
▁دوچار	-10.8932
▁uthaye	-10.8934
▁نیل	-10.8936
▁uthta	-10.8936
▁ماہانہ	-10.8938
▁بڑھتے	-10.8939
▁شوق	-10.894
▁nikalta	-10.8945
▁ڈیرہ	-10.8946
▁انکی	-10.8946
▁sardar	-10.8948
▁khait	-10.8948
▁sahaba	-10.895
▁بھگ	-10.8951
▁چیزیں	-10.8956
61	-10.8957
▁بیل	-10.8958
▁امی	-10.8962
▁کسان	-10.8966
▁سارا	-10.8969
▁گواہ	-10.8975
▁your	-10.8975
▁دہی	-10.8981
qadri	-10.8982
▁chout	-10.8984
▁کردیئے	-10.8987
▁jamal	-10.8988
وائی	-10.8994
▁aim	-10.8995
▁roze	-10.8996
▁چاہیں	-10.8996
▁رحمان	-10.9001
▁چپ	-10.9011
ect	-10.9015
▁لڑکیوں	-10.9017
▁فرما	-10.9018
▁hoe	-10.9025
▁گار	-10.9027
▁غذا	-10.9029
▁کروڑوں	-10.9033
▁۔۔	-10.9043
▁سیر	-10.9049
▁یوں	-10.9049
ps	-10.905
▁مہا	-10.9051
▁deed	-10.9052
▁not	-10.9055
▁ریاستوں	-10.9059
▁Waa	-10.9062
▁جنم	-10.9071
چین	-10.9072
▁sharminda	-10.9082
▁asateza	-10.9083
▁bhaap	-10.9083
▁ilzaam	-10.9083
▁inglistan	-10.9083
▁samjhi	-10.9083
▁taimoor	-10.9083
▁zeist	-10.9083
▁ابراہیم	-10.9083
▁حالانکہ	-10.9083
▁ذخیرہ	-10.9083
▁ضبط	-10.9083
▁غربت	-10.9083
▁لانڈرنگ	-10.9083
▁jaadoo	-10.9083
▁taqdeer	-10.9083
▁مقتول	-10.9083
▁غازی	-10.9083
▁aayiyae	-10.9083
▁اوسط	-10.9083
▁hojata	-10.9083
▁دراصل	-10.9084
▁صوفی	-10.9084
▁بروقت	-10.9084
▁پیکیج	-10.9085
▁گولیاں	-10.9091
▁عرفان	-10.9092
▁rukan	-10.9092
▁jungle	-10.9093
▁aagah	-10.9093
▁gehra	-10.9095
▁rotay	-10.9096
▁تحفظات	-10.9098
▁sis	-10.9099
▁mazaar	-10.9102
جنگ	-10.9103
▁safhay	-10.9105
▁ہتھیاروں	-10.911
وانی	-10.9113
88	-10.9113
▁ریس	-10.9121
▁pyara	-10.9129
▁نااہل	-10.913
su	-10.913
▁hawas	-10.9131
▁تاج	-10.9131
والے	-10.9132
▁see	-10.9135
▁khasi	-10.914
▁بولی	-10.9142
▁کرم	-10.9159
▁72	-10.9161
03	-10.9163
▁sari	-10.9164
▁basi	-10.9169
▁ہے۔انہوں	-10.917
▁mul	-10.9178
stan	-10.9183
86	-10.9189
لاہور	-10.9191
▁کنگ	-10.9194
▁ڈین	-10.9206
▁ریپ	-10.9208
▁وزرا	-10.9214
▁high	-10.9222
▁awa	-10.9226
▁شاہراہ	-10.9227
▁کلی	-10.9231
▁پڑی	-10.9231
▁seedha	-10.9235
▁makan	-10.9237
▁اسلامیہ	-10.9238
▁پلا	-10.924
▁England	-10.9244
▁awaien	-10.9244
▁barbaad	-10.9244
▁ittehaad	-10.9244
▁jfaa	-10.9244
▁zawaal	-10.9244
▁zayed	-10.9244
▁ریمانڈ	-10.9244
▁عبادت	-10.9244
▁چہرے	-10.9244
▁life	-10.9244
▁naqvi	-10.9244
▁کتنے	-10.9244
▁hijaab	-10.9244
▁انجمن	-10.9245
▁پُر	-10.9245
▁cheet	-10.9245
▁افزائی	-10.9245
▁برانچ	-10.9245
▁ایٹمی	-10.9246
▁qabar	-10.9246
▁back	-10.9247
▁gosht	-10.9247
▁کپڑے	-10.9247
▁room	-10.9248
▁mgr	-10.9249
▁سبزی	-10.9249
▁but	-10.9249
▁taaj	-10.9249
▁paata	-10.925
▁subha	-10.925
▁ڈیوڈ	-10.9251
▁چلتا	-10.9256
▁عنہ	-10.9257
▁کامران	-10.9257
▁برآمدات	-10.9259
▁Ap	-10.926
sk	-10.9261
76	-10.9264
▁Koi	-10.9265
▁wn	-10.9266
▁mashriqi	-10.9266
▁tootay	-10.927
▁انگریزی	-10.927
▁قبائلی	-10.9272
abi	-10.9281
▁tareeqay	-10.9283
▁alam	-10.9286
//	-10.93
▁baithi	-10.9303
▁پرانے	-10.9305
▁waza	-10.9306
▁پینل	-10.9313
▁hm	-10.9319
mp	-10.9323
عالمی	-10.9329
▁خوبصورتی	-10.9335
▁andaz	-10.9345
▁sm	-10.9353
▁aed	-10.9358
▁جیلوں	-10.9367
▁کرن	-10.9369
▁اربوں	-10.9376
▁طو	-10.9383
▁جوش	-10.9383
▁khoo	-10.9386
▁khudi	-10.9388
▁تاب	-10.9392
▁کیاگیا	-10.9392
▁thehr	-10.9394
▁mashwara	-10.9399
▁نون	-10.9399
▁Germany	-10.9408
▁Hafeez	-10.9408
▁July	-10.9408
▁Salman	-10.9408
▁barket	-10.9408
▁double	-10.9408
▁hikmat	-10.9408
▁kasrat	-10.9408
▁miyaar	-10.9408
▁mooatbar	-10.9408
▁photo	-10.9408
▁qaafley	-10.9408
▁shamoliat	-10.9408
▁آرڈیننس	-10.9408
▁اطمینان	-10.9408
▁اہداف	-10.9408
▁تھوڑا	-10.9408
▁جوڈیشل	-10.9408
▁حادثات	-10.9408
▁ذخائر	-10.9408
▁لائسنس	-10.9408
▁khusihyan	-10.9408
▁nazriya	-10.9408
▁start	-10.9408
▁ابلاغ	-10.9408
▁رجوع	-10.9408
▁bahot	-10.9408
▁sitaron	-10.9408
▁ہراساں	-10.9408
▁کنارے	-10.9408
▁کسٹم	-10.9409
▁laash	-10.9409
▁zaar	-10.9411
▁up	-10.9411
▁تجاوزات	-10.9411
▁2008	-10.9411
▁tegh	-10.9411
▁فریقین	-10.9412
▁پانچویں	-10.9413
کام	-10.9413
▁bahir	-10.9413
▁yaksaa	-10.9415
▁کروایا	-10.9415
amal	-10.9415
▁بتاتے	-10.9415
▁الق	-10.9416
مس	-10.9416
68	-10.9418
▁pakka	-10.9421
رجسٹر	-10.9421
▁دہشتگردوں	-10.9422
ao	-10.9422
▁اولین	-10.9424
28	-10.9424
▁آٹا	-10.9425
▁Haq	-10.9425
▁لیئے	-10.9429
▁drama	-10.9429
▁palat	-10.9433
▁یاسر	-10.9436
▁فضائیہ	-10.9436
▁بتائیں	-10.9445
▁بناتا	-10.9447
▁huien	-10.9468
▁raazi	-10.9468
▁mutala	-10.9469
▁ali	-10.9472
▁تھری	-10.948
▁عا	-10.9488
▁کویت	-10.9489
▁bina	-10.9505
▁موڈ	-10.9511
▁tareeq	-10.9516
▁2000	-10.9525
مسلم	-10.9535
ؤن	-10.9541
▁سوم	-10.9551
▁پٹی	-10.9551
66	-10.9551
▁جڑ	-10.956
▁thora	-10.9566
▁وکلا	-10.957
▁وارڈ	-10.957
▁بجا	-10.957
▁that	-10.9573
▁رجحان	-10.9575
▁Osama	-10.9575
▁Saleem	-10.9575
▁chunancha	-10.9575
▁daonlod	-10.9575
▁frmane	-10.9575
▁ghoom	-10.9575
▁ilaqon	-10.9575
▁justojoo	-10.9575
▁kaarobar	-10.9575
▁kurkuray	-10.9575
▁majmaa	-10.9575
▁muashi	-10.9575
▁qawaneen	-10.9575
▁saarhay	-10.9575
▁tasalii	-10.9575
▁تناظر	-10.9575
▁حضرات	-10.9575
▁لیفٹیننٹ	-10.9575
▁چھاپہ	-10.9575
▁ڈیپارٹمنٹ	-10.9575
▁aaiine	-10.9575
▁shajar	-10.9575
▁جہلم	-10.9575
▁لائف	-10.9575
▁ڈرامے	-10.9575
▁مرکوز	-10.9575
▁حریت	-10.9575
▁منہاج	-10.9575
▁کنٹینر	-10.9575
▁railway	-10.9575
▁حمید	-10.9575
▁paper	-10.9575
▁قا	-10.9575
▁kush	-10.9575
▁آتش	-10.9575
▁Asif	-10.9575
▁اسپورٹس	-10.9576
▁برتری	-10.9576
▁job	-10.9576
▁مرمت	-10.9578
▁hamlon	-10.9578
▁aksariyat	-10.9578
▁niyat	-10.9578
▁شوٹنگ	-10.9578
▁pemanay	-10.9579
▁اجزاء	-10.9579
▁2006	-10.9579
▁laag	-10.958
▁شہداء	-10.9581
▁اختلافات	-10.9581
▁sharah	-10.9581
▁پھیلانے	-10.9582
پاک	-10.9582
▁hae	-10.9583
▁تیس	-10.9584
▁کلام	-10.9589
▁نواب	-10.959
▁راؤ	-10.959
▁taras	-10.959
▁ٹیوب	-10.959
▁فیشن	-10.9593
▁kou	-10.9599
▁badar	-10.96
▁parhna	-10.9601
▁suno	-10.9605
▁طب	-10.9606
▁چیلنجز	-10.9609
▁naala	-10.9611
▁لانگ	-10.9611
▁jaate	-10.9613
▁63	-10.962
▁azal	-10.9621
▁qu	-10.9621
▁بیانات	-10.9628
▁noori	-10.9636
نٹس	-10.965
▁خوا	-10.9655
▁rahiye	-10.9657
▁ناز	-10.9659
▁عراقی	-10.9669
▁58	-10.9673
▁شیٹ	-10.9679
▁نق	-10.9683
ماہ	-10.969
▁تحریری	-10.9693
▁رک	-10.9697
▁La	-10.9699
واہ	-10.9701
▁کھیلی	-10.9703
▁گرو	-10.9705
رَ	-10.9713
▁ٹکر	-10.9714
▁انگریز	-10.9718
▁120	-10.9719
▁gawahi	-10.9723
▁کیپر	-10.9728
▁nuskha	-10.9735
▁qatra	-10.9736
دنیا	-10.9743
▁anjuman	-10.9745
▁bhabhee	-10.9745
▁bilhaaz	-10.9745
▁confirm	-10.9745
▁court	-10.9745
▁gubhar	-10.9745
▁ishtihar	-10.9745
▁mazboot	-10.9745
▁rivaaj	-10.9745
▁اطراف	-10.9745
▁اٹارنی	-10.9745
▁باضابطہ	-10.9745
▁مراکز	-10.9745
▁مطالعہ	-10.9745
▁Sadiq	-10.9745
▁hathyaar	-10.9745
▁shaaid	-10.9745
▁station	-10.9745
▁عمدہ	-10.9745
▁کتنی	-10.9745
▁jaaiz	-10.9745
▁taqreer	-10.9745
▁نکاح	-10.9745
▁conference	-10.9745
▁اندراج	-10.9745
▁پاناما	-10.9745
▁khaala	-10.9745
▁giroh	-10.9745
▁churraya	-10.9745
▁bhaari	-10.9745
▁منظم	-10.9746
▁ساجد	-10.9746
▁jaiza	-10.9746
▁سلوک	-10.9746
ائزیشن	-10.9747
▁shirkat	-10.9747
▁سروے	-10.9747
▁hanstay	-10.9748
▁madah	-10.9748
▁yaado	-10.9749
▁نیند	-10.9749
▁2009	-10.9749
▁aoor	-10.975
▁صنعتی	-10.9752
▁mojoodgi	-10.9753
▁ناسا	-10.9753
▁پیسہ	-10.9756
▁sikha	-10.9759
▁ayaat	-10.9763
▁دریں	-10.9766
▁اسٹور	-10.9769
▁nagar	-10.9769
▁dee	-10.9769
▁بھٹی	-10.977
▁فرم	-10.9771
▁جاننے	-10.9781
▁مکہ	-10.9784
▁نامور	-10.9798
▁aar	-10.9811
تیں	-10.9815
▁پورہ	-10.9818
▁فیصلوں	-10.9822
ٹرو	-10.9831
▁رضاکار	-10.9846
▁150	-10.9849
▁دا	-10.9857
▁os	-10.9864
رہا	-10.9866
▁جیتا	-10.9866
▁ایٹ	-10.988
▁ٹریک	-10.9887
34	-10.9887
▁ذہن	-10.9898
▁حامی	-10.9899
▁موڑ	-10.9902
امت	-10.9904
▁کرینگے	-10.9905
ستہ	-10.9908
▁London	-10.9917
▁afsaanay	-10.9917
▁alhmd	-10.9917
▁college	-10.9917
▁dastyab	-10.9917
▁mohtarma	-10.9917
▁mubtala	-10.9917
▁tashreeh	-10.9917
▁اراضی	-10.9917
▁اعلامیہ	-10.9917
▁ضائع	-10.9917
▁معذرت	-10.9917
▁وحدت	-10.9917
▁dyie	-10.9917
▁مسیح	-10.9917
▁اسٹاک	-10.9917
▁azeez	-10.9917
▁موسیقی	-10.9917
▁سیکنڈ	-10.9917
نگے	-10.9917
▁will	-10.9918
▁جلوس	-10.9919
▁pabandiyan	-10.9919
▁قرنطینہ	-10.9919
▁shool	-10.9919
▁اداکارائیں	-10.992
▁دکھایا	-10.9922
▁کمنٹس	-10.9922
▁ٹاس	-10.9923
▁موٹرسائیکل	-10.9924
▁کرایہ	-10.9924
▁ڈینگی	-10.9924
▁جنگلات	-10.9925
▁drtay	-10.9926
▁baazu	-10.9927
▁فردوس	-10.9928
://	-10.9928
صلی	-10.9928
▁ڈکیتی	-10.9941
▁طالبہ	-10.9942
▁krna	-10.9942
▁گیمز	-10.9943
▁گیشن	-10.9945
خبر	-10.9955
▁پلے	-10.9959
▁hawaon	-10.9959
▁بندش	-10.9964
▁site	-10.9968
▁dila	-10.9969
▁bharay	-10.9972
▁nikala	-10.9975
▁radd	-10.9976
nz	-10.9977
▁Ata	-10.998
haq	-10.9993
▁jeetay	-10.9995
39	-10.9998
▁بھائیوں	-11.0006
ure	-11.0008
▁گراف	-11.0017
▁49	-11.0018
▁اوز	-11.0022
حہ	-11.0034
▁aane	-11.0036
▁خام	-11.0037
▁پچ	-11.0041
33	-11.0047
▁سمری	-11.0048
▁سست	-11.0049
▁pro	-11.005
چیف	-11.0059
▁lamba	-11.0066
▁jad	-11.0067
مند	-11.0069
فہ	-11.0075
▁بلی	-11.008
لیکن	-11.0081
▁daita	-11.0083
▁nojawan	-11.0085
▁اشیا	-11.0086
▁HUWAY	-11.0092
▁buray	-11.0092
▁chhoo	-11.0092
▁fakhr	-11.0092
▁ghanemat	-11.0092
▁gheiron	-11.0092
▁marhoom	-11.0092
▁masrufiyat	-11.0092
▁mukhtaar	-11.0092
▁ouncha	-11.0092
▁queta	-11.0092
▁الیکٹرک	-11.0092
▁انفیکشن	-11.0092
▁بغاوت	-11.0092
▁بمقابلہ	-11.0092
▁حقائق	-11.0092
▁خبررساں	-11.0092
▁رعایت	-11.0092
▁طبقے	-11.0092
▁مقاصد	-11.0092
▁نژاد	-11.0092
▁گوجرانوالہ	-11.0092
▁Deeni	-11.0092
▁aadaab	-11.0092
▁akhri	-11.0092
▁gup	-11.0092
▁تشویشناک	-11.0092
▁aour	-11.0092
▁halakat	-11.0092
▁http	-11.0092
▁such	-11.0092
▁feb	-11.0092
▁ٹرائل	-11.0092
▁سورج	-11.0092
▁drone	-11.0092
▁عبدالعزیز	-11.0093
▁ملیشیا	-11.0093
▁abyari	-11.0093
▁فصل	-11.0093
▁hathi	-11.0093
▁shabash	-11.0093
▁پہچان	-11.0093
▁مہنگی	-11.0093
▁عادل	-11.0093
▁first	-11.0093
▁سرگرمیاں	-11.0094
▁گھڑی	-11.0094
▁bolna	-11.0095
29	-11.0095
▁آپریٹنگ	-11.0095
▁فیڈرل	-11.0095
▁بچاؤ	-11.0096
▁ورانہ	-11.0098
▁پڑھیے	-11.0099
▁ohday	-11.01
▁کھلا	-11.01
▁Ji	-11.0101
▁مائیکرو	-11.0102
▁لڑنے	-11.0102
▁ہوسکتے	-11.0103
▁سبھی	-11.0103
▁tax	-11.0103
▁مدینہ	-11.0104
▁alehda	-11.0104
▁کروائی	-11.0108
▁بولنگ	-11.0108
▁Rah	-11.011
▁رہنمائی	-11.0111
▁guzarnay	-11.0112
▁حدیث	-11.0116
▁ہرا	-11.0116
▁banatay	-11.0117
▁کمپنیاں	-11.0117
05	-11.0118
▁تاجروں	-11.012
▁قیامت	-11.0127
▁ٹیوٹ	-11.0129
▁ملتے	-11.0139
▁bra	-11.0143
▁افتتاحی	-11.0146
▁ڈوب	-11.0147
▁کرام	-11.0151
▁نیز	-11.0156
سہ	-11.0163
▁ila	-11.0168
▁hova	-11.0171
▁دستیابی	-11.0177
▁jang	-11.0188
▁اسکولوں	-11.0193
▁سبق	-11.0198
▁پالیسیوں	-11.0202
▁لگائیں	-11.0214
▁nh	-11.0215
▁نااہلی	-11.022
▁جبری	-11.0222
▁khoobi	-11.0224
91	-11.0224
رض	-11.0229
▁یاب	-11.023
▁گانے	-11.0235
▁بہادر	-11.0245
▁نامے	-11.0247
▁haram	-11.0251
▁جنوب	-11.0253
قع	-11.0256
حل	-11.0256
خلاف	-11.0259
▁سراہا	-11.0259
▁ماہی	-11.026
▁kijiye	-11.0268
▁دعوی	-11.0269
▁AUR	-11.0271
▁Hassan	-11.0271
▁chunkay	-11.0271
▁crore	-11.0271
▁hwin	-11.0271
▁laazmi	-11.0271
▁majmoi	-11.0271
▁misbet	-11.0271
▁pandrah	-11.0271
▁shetan	-11.0271
▁zahmat	-11.0271
▁ارشاد	-11.0271
▁بشمول	-11.0271
▁تصادم	-11.0271
▁جارحیت	-11.0271
▁دھاندلی	-11.0271
▁صیہونی	-11.0271
▁عارضی	-11.0271
▁علامات	-11.0271
▁ناجائز	-11.0271
▁واپڈا	-11.0271
▁چونکہ	-11.0271
▁کعبہ	-11.0271
▁aadoor	-11.0271
▁roop	-11.0271
▁حضور	-11.0271
▁مہینوں	-11.0271
▁awon	-11.0271
▁tahir	-11.0271
▁پڑوسی	-11.0271
▁hojati	-11.0271
▁toseefi	-11.0271
▁چوتھے	-11.0271
▁رشوت	-11.0271
▁ہوسکے	-11.0271
▁Haider	-11.0272
▁کیمرے	-11.0272
▁ڈیبیو	-11.0272
▁mangi	-11.0272
▁ارسال	-11.0272
▁atif	-11.0273
▁larka	-11.0273
▁Tarah	-11.0273
▁yarab	-11.0273
▁اسپین	-11.0273
▁anwar	-11.0274
▁peoples	-11.0275
▁دھرنے	-11.0275
▁ترجمہ	-11.0275
▁janna	-11.0276
▁swat	-11.0277
▁وفات	-11.0277
▁جنگجو	-11.0278
▁sachey	-11.0279
▁arsaal	-11.0279
▁پڑھنے	-11.028
سٹن	-11.028
▁Sab	-11.0281
▁ثناء	-11.0282
58	-11.0282
▁لاشیں	-11.0283
▁parasti	-11.0283
▁ہیرو	-11.0284
▁ناتھ	-11.0284
▁nasha	-11.0285
▁pohanchi	-11.0285
▁ہاشمی	-11.0285
▁جمہوریہ	-11.0285
▁زدہ	-11.0288
▁ڈا	-11.0295
▁آمدنی	-11.0296
▁جادو	-11.0297
▁ouron	-11.0298
شاہ	-11.0299
56	-11.0299
▁krnay	-11.0304
▁bhoolay	-11.031
▁انتظامی	-11.0319
▁kaari	-11.0321
▁kalam	-11.0331
سعودی	-11.0334
lm	-11.0339
▁درس	-11.0341
▁درخواستوں	-11.0342
ہوں	-11.0343
ڈین	-11.0353
▁baht	-11.0357
▁ایجنسیوں	-11.0358
▁انکا	-11.0369
▁ٹور	-11.0377
▁جین	-11.0381
55	-11.0385
▁بھٹ	-11.0386
▁بون	-11.0393
پنجاب	-11.0399
▁تھر	-11.0405
آر	-11.0407
ٰی	-11.0407
▁home	-11.0411
▁61	-11.0418
ائس	-11.0424
▁thehray	-11.0428
▁نکلے	-11.0435
ڈے	-11.0442
▁hara	-11.0443
▁تجاوز	-11.045
▁machhli	-11.0452
▁jug	-11.0453
▁Ajmal	-11.0453
▁afridi	-11.0453
▁aulaad	-11.0453
▁bheja	-11.0453
▁committee	-11.0453
▁khutoot	-11.0453
▁malomati	-11.0453
▁qeemti	-11.0453
▁qilah	-11.0453
▁rishte	-11.0453
▁sanjeedgi	-11.0453
▁urooj	-11.0453
▁تدابیر	-11.0453
▁تفریح	-11.0453
▁رحیم	-11.0453
▁شرائط	-11.0453
▁عروج	-11.0453
▁مظالم	-11.0453
▁کمپلیکس	-11.0453
▁akela	-11.0453
▁assaar	-11.0453
▁cheif	-11.0453
▁usko	-11.0453
▁ڈیفنس	-11.0453
▁bharosa	-11.0453
▁ibtidayi	-11.0453
▁شوبز	-11.0453
▁آفیشل	-11.0453
▁املاک	-11.0453
▁محبوب	-11.0453
▁dastoor	-11.0453
▁اسپیشل	-11.0453
▁saloon	-11.0454
▁bolein	-11.0454
▁کاغذات	-11.0455
▁shola	-11.0455
▁tafseelaat	-11.0456
▁hzari	-11.0459
▁مرغ	-11.046
▁bore	-11.046
▁طاقتور	-11.0462
▁gun	-11.0463
▁mast	-11.0466
▁Khush	-11.0468
▁wafaat	-11.0468
▁بروز	-11.0469
▁بیلٹ	-11.0471
▁karaya	-11.0472
▁bekar	-11.0475
▁date	-11.0475
▁صالح	-11.0477
▁busr	-11.0478
38	-11.0479
▁فلمی	-11.048
▁ining	-11.0481
▁تلے	-11.0483
▁کارروائیاں	-11.0486
بات	-11.0487
▁مارکیٹنگ	-11.0487
▁soye	-11.0495
▁گیندوں	-11.0499
▁انسٹی	-11.0499
▁patti	-11.0507
▁kafi	-11.0515
▁زبانوں	-11.0529
▁paray	-11.0529
▁گردش	-11.053
▁کریک	-11.0544
▁hoyi	-11.0544
pt	-11.0562
▁جوڑ	-11.0568
▁ھے	-11.0576
تقریب	-11.0584
مجھے	-11.0585
مزید	-11.0586
چو	-11.0589
▁آگئے	-11.0593
پھر	-11.0594
تاہم	-11.06
▁مزار	-11.0612
▁laat	-11.0612
▁خودکش	-11.0613
▁ڈانس	-11.0613
▁سماج	-11.0614
75	-11.0615
▁meharban	-11.0621
▁روزے	-11.0623
بس	-11.0627
▁ایجنٹ	-11.0628
▁naqsha	-11.0629
▁khilaf	-11.0633
▁ویز	-11.0637
▁captain	-11.0638
▁chohadry	-11.0638
▁congress	-11.0638
▁degiye	-11.0638
▁family	-11.0638
▁jashnn	-11.0638
▁lazim	-11.0638
▁muahiday	-11.0638
▁tadbeer	-11.0638
▁taseer	-11.0638
▁zulff	-11.0638
▁روابط	-11.0638
▁منافع	-11.0638
▁market	-11.0638
▁qadeem	-11.0638
▁سرزمین	-11.0638
▁لطف	-11.0638
▁kinara	-11.0639
▁arsh	-11.0639
▁khatima	-11.0639
▁استاد	-11.064
▁yaden	-11.064
▁جانور	-11.0643
▁zehni	-11.0643
▁rawana	-11.0644
▁بیجنگ	-11.0645
▁nishani	-11.0646
▁insha	-11.0646
▁میگا	-11.0647
▁مانی	-11.0651
▁master	-11.0654
▁ly	-11.0654
▁roye	-11.0655
▁guzarte	-11.0655
▁goad	-11.0656
▁adaad	-11.0656
▁yad	-11.0658
▁Li	-11.0659
▁thaak	-11.0659
▁chhaa	-11.0661
▁اندرونی	-11.0661
▁رکنیت	-11.0664
▁ملت	-11.0665
▁کامرس	-11.0666
▁guzarti	-11.0667
▁ایسٹ	-11.067
▁majaboori	-11.0671
▁چوروں	-11.0671
▁بازو	-11.0674
▁pass	-11.0675
▁mutaliqa	-11.0678
گول	-11.0678
▁گیر	-11.068
فن	-11.0683
▁لائیں	-11.0686
▁چاروں	-11.0687
▁3,	-11.0689
▁ججز	-11.0691
نجی	-11.0691
▁سکیں۔	-11.0691
▁sb	-11.0698
▁sal	-11.0701
ٹنگ	-11.0701
ئے۔	-11.0703
▁رش	-11.0704
▁مسعود	-11.0705
▁ملاقاتیں	-11.0707
arif	-11.0712
▁درخواستیں	-11.0713
▁جلدی	-11.0717
پاکستانی	-11.0723
▁مردان	-11.0731
وقت	-11.0736
▁سرے	-11.0739
▁ras	-11.074
▁hongi	-11.0742
نہیں	-11.0747
میر	-11.0748
ساتھ	-11.0749
▁choutha	-11.0757
شین	-11.076
▁use	-11.0768
J	-11.077
▁دبا	-11.0774
▁nain	-11.0778
oob	-11.0779
▁تکنیکی	-11.0783
▁معاف	-11.0785
▁ado	-11.0789
شہر	-11.0796
▁kalay	-11.0796
▁ذات	-11.0799
ئیے	-11.0805
99	-11.0814
▁muashra	-11.0817
▁رائٹ	-11.0818
▁ہزارہ	-11.0819
▁تعین	-11.0823
▁پٹرول	-11.0826
age	-11.0826
▁تعالی	-11.0826
▁تخلیق	-11.0827
▁Hijaz	-11.0827
▁Munir	-11.0827
▁Nemat	-11.0827
▁bukhari	-11.0827
▁darwaaza	-11.0827
▁fraib	-11.0827
▁gazabb	-11.0827
▁idaron	-11.0827
▁judge	-11.0827
▁karsaktha	-11.0827
▁lashkar	-11.0827
▁muamlay	-11.0827
▁niklny	-11.0827
▁professor	-11.0827
▁pyaas	-11.0827
▁release	-11.0827
▁shohrat	-11.0827
▁آہستہ	-11.0827
▁خدشات	-11.0827
▁ریونیو	-11.0827
▁قیصر	-11.0827
▁مؤثر	-11.0827
▁fateh	-11.0827
▁malala	-11.0827
▁سیوریج	-11.0827
▁انڈیکس	-11.0827
▁irani	-11.0827
▁apny	-11.0827
▁WAO	-11.0827
▁کرسکیں	-11.0827
▁umar	-11.0827
▁sachaai	-11.0827
▁JO	-11.0828
▁mansoobah	-11.0829
▁pathan	-11.0829
▁نامزدگی	-11.0829
▁fikr	-11.083
▁laip	-11.0831
▁GA	-11.0831
▁jaib	-11.0832
▁دھمکیاں	-11.0833
▁daaley	-11.0833
▁جیمز	-11.0833
▁behnain	-11.0833
▁روزنامہ	-11.0833
▁لیک	-11.0834
▁انجینئرنگ	-11.0835
▁ملکہ	-11.0836
▁عسکریت	-11.0837
جین	-11.0842
▁محرم	-11.0842
▁zakhamo	-11.0844
▁janaza	-11.0844
▁soaz	-11.0845
▁yaqeenan	-11.0851
▁سننے	-11.0856
▁zik	-11.0857
▁نشستوں	-11.0858
▁dushmanon	-11.0859
▁krta	-11.0859
▁panay	-11.0862
▁ghulami	-11.0865
▁pit	-11.0868
▁بھوک	-11.0872
▁doray	-11.0887
▁thanda	-11.0887
کوئی	-11.0891
▁عن	-11.0893
▁صفحہ	-11.0895
شیر	-11.0897
▁bail	-11.0903
▁مصری	-11.0904
▁Be	-11.0904
▁ریل	-11.0913
▁مڈل	-11.0914
▁بنایا۔	-11.0916
her	-11.0916
▁چھوٹا	-11.0917
.3	-11.0919
▁paya	-11.092
▁گم	-11.0923
▁سرد	-11.0923
▁برف	-11.0936
ہِ	-11.0937
▁dhan	-11.095
▁maani	-11.0954
▁پسندی	-11.0956
گزشتہ	-11.0965
امریکی	-11.0965
قانون	-11.0965
نڈی	-11.0966
W	-11.0966
ast	-11.0966
مارچ	-11.0972
44	-11.0972
▁لائنز	-11.098
▁سام	-11.0983
▁Ro	-11.0986
▁rog	-11.099
▁گانا	-11.0991
▁احتیاطی	-11.0997
▁حکومتوں	-11.0999
▁بیمار	-11.1005
▁متحد	-11.1006
▁ضیا	-11.1011
حکم	-11.1016
▁YE	-11.1019
▁سکتا۔	-11.1019
▁نوکری	-11.1019
▁buraiee	-11.1019
▁county	-11.1019
▁fitnah	-11.1019
▁khumar	-11.1019
▁kyonkr	-11.1019
▁mareez	-11.1019
▁اطلاق	-11.1019
▁افریقی	-11.1019
▁اقسام	-11.1019
▁برعکس	-11.1019
▁تبصرے	-11.1019
▁تجربات	-11.1019
▁خاقان	-11.1019
▁زمبابوے	-11.1019
▁ساہیوال	-11.1019
▁مذاق	-11.1019
▁مضمون	-11.1019
▁گہرے	-11.1019
▁boltaa	-11.1019
▁alstar	-11.1019
▁dikhaane	-11.1019
▁galiyo	-11.1019
▁manind	-11.1019
▁ٹرانس	-11.1019
▁fanaa	-11.1019
▁taqaza	-11.1019
▁zaad	-11.1019
▁kefiyat	-11.1019
▁ہوسکا	-11.1019
▁کاکہنا	-11.1019
▁امجد	-11.102
▁پتھر	-11.102
▁kafan	-11.102
▁لیبیا	-11.102
▁WO	-11.102
▁سنجے	-11.102
▁پلیئر	-11.1021
▁لاحق	-11.1021
▁kaanon	-11.1021
▁میجر	-11.1022
▁larkiyon	-11.1023
▁کڑی	-11.1023
▁Nami	-11.1023
▁kuttay	-11.1023
▁khalis	-11.1024
▁akhirat	-11.1024
▁takhat	-11.1024
▁Top	-11.1025
▁jaltay	-11.1025
▁سیاحوں	-11.1026
بھارتی	-11.1027
▁khayen	-11.1028
▁jeetnay	-11.1028
▁پہننے	-11.1029
▁dahi	-11.1029
▁جاسکے۔	-11.103
▁معین	-11.1033
▁سیکشن	-11.1034
▁آپس	-11.1037
▁کھلی	-11.1038
▁سکھر	-11.104
▁tarf	-11.1041
▁jb	-11.1041
▁wahid	-11.1043
▁aaqa	-11.1044
▁ملتا	-11.1045
▁سائز	-11.1048
▁sochte	-11.105
▁art	-11.1052
▁sr	-11.1053
▁حرام	-11.1054
42	-11.1057
▁gayarah	-11.1057
▁پروازوں	-11.1058
▁جنگل	-11.1066
▁Pakistanio	-11.1077
▁ابن	-11.1079
▁tik	-11.108
▁بچیوں	-11.1081
▁fire	-11.1083
▁boli	-11.1084
oot	-11.109
▁kharabi	-11.1095
▁zuban	-11.1095
▁اش	-11.1117
lam	-11.1127
▁جوابی	-11.1141
▁پیٹر	-11.1143
▁mohabbaton	-11.1148
▁یورو	-11.1166
▁مچا	-11.1174
ity	-11.1176
ویل	-11.1181
ڑو	-11.1181
▁حمل	-11.1182
▁57	-11.1184
▁سرا	-11.1193
▁معا	-11.1194
▁aqwam	-11.1198
▁آغا	-11.1204
▁Aamir	-11.1215
▁Azmat	-11.1215
▁Daleel	-11.1215
▁Khushgawar	-11.1215
▁Stories	-11.1215
▁chocolate	-11.1215
▁deewany	-11.1215
▁haqayiq	-11.1215
▁mutadid	-11.1215
▁qabool	-11.1215
▁rasheed	-11.1215
▁rashid	-11.1215
▁saraapaa	-11.1215
▁sarfeen	-11.1215
▁tofeq	-11.1215
▁wabsta	-11.1215
▁weraan	-11.1215
▁اترپردیش	-11.1215
▁طریقوں	-11.1215
▁عاطف	-11.1215
▁عجیب	-11.1215
▁مجسٹریٹ	-11.1215
▁مستعفی	-11.1215
▁ٹارگٹ	-11.1215
▁چئیرمین	-11.1215
▁shoba	-11.1215
▁بعدازاں	-11.1215
▁حریف	-11.1215
▁chupkay	-11.1215
▁hadaf	-11.1215
▁دلائل	-11.1215
▁aazma	-11.1215
▁tanzeem	-11.1215
▁istarah	-11.1215
▁الیون	-11.1215
▁ہوجاتی	-11.1215
▁ریٹائرمنٹ	-11.1216
▁افضل	-11.1216
▁نبوی	-11.1216
▁محققین	-11.1216
▁visale	-11.1216
▁ٹکڑے	-11.1216
▁kalie	-11.1216
▁واجب	-11.1217
▁دفن	-11.1217
▁fiqr	-11.1217
▁دراز	-11.1218
▁پھیلاؤ	-11.1218
▁پائیدار	-11.1218
▁raaj	-11.1219
▁آٹے	-11.122
▁لانا	-11.1221
▁مطلوبہ	-11.1221
▁Saad	-11.1222
▁آہنگی	-11.1223
▁khayaali	-11.1223
▁ضیاء	-11.1224
▁مصنوعی	-11.1224
▁متنازعہ	-11.1225
▁لاگو	-11.1228
▁وزیرستان	-11.1228
▁ریال	-11.1232
▁پڑنے	-11.1233
▁روح	-11.1234
▁گلوکارہ	-11.1234
▁mardon	-11.1242
▁ناموں	-11.1243
▁یادو	-11.1255
▁bars	-11.1255
▁دائرہ	-11.1262
▁دانوں	-11.1263
▁sabit	-11.127
▁جمعے	-11.1275
▁یمنی	-11.1277
36	-11.1278
▁jae	-11.1281
▁aage	-11.1289
▁مومن	-11.1294
مئی	-11.1298
قد	-11.1303
47	-11.1305
zr	-11.1319
▁چمک	-11.132
▁جاپانی	-11.132
گان	-11.1326
دین	-11.133
باز	-11.1341
ذب	-11.1346
▁39	-11.1351
2018	-11.1366
▁الل	-11.1369
▁qurb	-11.137
▁بینکوں	-11.1373
▁آنکھ	-11.1397
▁bahadur	-11.1397
▁km	-11.1399
▁جائیگا	-11.1408
▁haami	-11.1411
▁Android	-11.1415
▁Khurshid	-11.1415
▁Riaz	-11.1415
▁Siddiqui	-11.1415
▁Tishna	-11.1415
▁afwaj	-11.1415
▁aqeedah	-11.1415
▁faraghat	-11.1415
▁ghusse	-11.1415
▁imdaad	-11.1415
▁khidmaat	-11.1415
▁mafhuum	-11.1415
▁mahireen	-11.1415
▁sahoolat	-11.1415
▁tajzia	-11.1415
▁thikaane	-11.1415
▁zakhmi	-11.1415
▁تھوڑی	-11.1415
▁مشتاق	-11.1415
▁موومنٹ	-11.1415
▁misl	-11.1415
▁zaheen	-11.1415
▁علیحدہ	-11.1415
▁واقف	-11.1415
▁رجسٹرڈ	-11.1415
▁ناممکن	-11.1415
▁parinday	-11.1415
▁آفتاب	-11.1415
▁آڈیو	-11.1415
▁kapray	-11.1415
▁qatil	-11.1415
▁کتب	-11.1415
▁سمارٹ	-11.1415
▁ارادہ	-11.1415
▁بوتل	-11.1416
▁قائداعظم	-11.1416
▁button	-11.1416
▁بنگال	-11.1416
▁ڈاکوؤں	-11.1416
▁پریشر	-11.1416
▁موٹروے	-11.1416
▁mahang	-11.1417
▁رہیں۔	-11.1418
▁Hun	-11.1418
▁میسر	-11.1419
▁مجید	-11.1419
▁ڈھائی	-11.1419
▁gohar	-11.142
▁ایشیائی	-11.142
▁intikhabaat	-11.1422
▁hasb	-11.1422
▁chorra	-11.1422
▁جعفری	-11.1423
▁چاول	-11.1424
▁خوشحالی	-11.1426
▁nadan	-11.1426
▁ایاز	-11.1426
▁more	-11.1427
▁jeena	-11.1427
▁آئے۔	-11.1428
▁martay	-11.1429
▁بولنے	-11.1431
▁aese	-11.1437
▁aii	-11.1442
▁sotay	-11.1442
▁دہائیوں	-11.1444
▁gaar	-11.1446
▁ثقافتی	-11.1449
بری	-11.1455
▁رانی	-11.1456
▁گلے	-11.146
▁As	-11.1462
▁کھاد	-11.1465
▁aza	-11.1467
▁مص	-11.1467
▁kitab	-11.1469
▁zameer	-11.147
▁74	-11.1478
بیان	-11.1478
▁آلہ	-11.1479
▁راستوں	-11.148
▁Ad	-11.1483
▁kissi	-11.1485
▁zad	-11.1486
▁rozay	-11.1505
▁سرنگ	-11.1505
▁karty	-11.1508
▁کرلی۔	-11.1508
▁chale	-11.1513
▁ڈالی	-11.1519
ist	-11.152
▁مختص	-11.1531
▁بالوں	-11.1533
سکتے	-11.1536
▁bakhsh	-11.1542
▁انیس	-11.1547
▁tain	-11.1559
▁ٹینک	-11.1563
▁اخلاق	-11.1563
ڈال	-11.1565
حسن	-11.1575
▁patt	-11.1577
▁پھیلا	-11.1578
▁مایوس	-11.158
دھو	-11.1584
▁جگہوں	-11.1588
▁takka	-11.1597
sur	-11.1598
▁sust	-11.1602
▁ڈالیں	-11.1603
▁جانوں	-11.1605
▁جاسکے	-11.1607
▁اثنا	-11.1611
▁pairr	-11.1611
▁روٹ	-11.1613
ca	-11.1615
▁ناراض	-11.1618
▁pesha	-11.1618
▁AAP	-11.1619
▁Iqtidaar	-11.1619
▁Zumra	-11.1619
▁augst	-11.1619
▁dastakhat	-11.1619
▁husool	-11.1619
▁karbalaa	-11.1619
▁lecture	-11.1619
▁mutwajjah	-11.1619
▁rizwan	-11.1619
▁tashadud	-11.1619
▁twenty	-11.1619
▁wudu	-11.1619
▁استحصال	-11.1619
▁اشتراک	-11.1619
▁دفعات	-11.1619
▁صحافت	-11.1619
▁فاطمہ	-11.1619
▁لواحقین	-11.1619
▁پروڈکشن	-11.1619
▁Sharf	-11.1619
▁کمرشل	-11.1619
▁saabit	-11.1619
▁نمٹا	-11.1619
▁dahai	-11.1619
▁نسیم	-11.1619
▁استعفیٰ	-11.1619
▁حامد	-11.1619
▁ایبٹ	-11.1619
▁search	-11.1619
▁zamray	-11.162
▁چیمہ	-11.1621
▁پیٹرولیم	-11.1621
▁mangal	-11.1621
▁Asad	-11.1622
▁ulatnay	-11.1622
▁dene	-11.1622
▁گھوم	-11.1622
▁تلاشی	-11.1622
▁zabanon	-11.1623
▁jhar	-11.1623
▁lateefa	-11.1624
▁dais	-11.1625
▁dewan	-11.1625
▁دیو	-11.1626
▁aawara	-11.1626
▁نگراں	-11.1627
▁ڈان	-11.1627
▁دکھانے	-11.1629
▁ہڈی	-11.1629
▁فراڈ	-11.1631
▁ماحولیاتی	-11.1638
▁daam	-11.164
▁barg	-11.1642
▁chaon	-11.1644
▁kf	-11.1646
▁hoey	-11.1646
▁aor	-11.1647
▁فرقہ	-11.1649
▁thim	-11.1652
▁walida	-11.1653
▁ملیں	-11.1654
▁hero	-11.1655
ھوں	-11.1656
43	-11.1657
▁دام	-11.1657
▁سیاحتی	-11.1659
▁خاموشی	-11.1661
▁raahat	-11.1665
▁toota	-11.167
ill	-11.1673
▁سمندری	-11.1673
▁رنج	-11.1674
▁نکالا	-11.1674
▁bass	-11.1674
▁زبردستی	-11.1677
▁chukay	-11.1689
▁ونڈ	-11.1692
▁garh	-11.1694
▁بنیں	-11.1697
▁guzarta	-11.1698
▁ok	-11.1706
amar	-11.1707
▁پاپ	-11.1709
▁hila	-11.171
▁گھس	-11.1713
▁81	-11.1719
▁رہنماء	-11.1721
▁حا	-11.1722
▁yi	-11.1722
ظم	-11.173
▁پے	-11.1733
▁آرہے	-11.1736
▁پڑھا	-11.1738
▁Am	-11.1745
▁aae	-11.175
▁gala	-11.1752
▁سپرد	-11.176
اہل	-11.1765
mani	-11.1765
وفاقی	-11.1774
▁95	-11.1775
▁2,6	-11.1777
▁62	-11.1778
▁آرٹس	-11.1791
سندھ	-11.1794
▁پابند	-11.18
▁روٹی	-11.1804
▁کرلیں	-11.1806
وجہ	-11.1808
عم	-11.1809
▁سیاستدان	-11.181
▁faida	-11.1818
▁aasan	-11.1821
▁سورہ	-11.1822
▁akhir	-11.1822
▁بگ	-11.1823
▁وزیراعلی	-11.1827
▁Afsar	-11.1827
▁Urfan	-11.1827
▁bdalty	-11.1827
▁governor	-11.1827
▁wehshat	-11.1827
▁wusool	-11.1827
▁اعلامیے	-11.1827
▁ایکسچینج	-11.1827
▁ترامیم	-11.1827
▁فیسٹیول	-11.1827
▁Iraq	-11.1827
▁beshtar	-11.1827
▁habib	-11.1827
▁jarahay	-11.1827
▁naqaab	-11.1827
▁roznama	-11.1827
▁نذر	-11.1827
▁جتنا	-11.1827
▁کریڈٹ	-11.1827
▁مہاراشٹر	-11.1828
▁hararat	-11.1828
▁ٹونٹی	-11.1828
▁قلب	-11.1828
▁Nawazish	-11.1828
▁اسٹیل	-11.1828
▁تہوار	-11.1828
▁ballay	-11.1829
▁شجاعت	-11.1829
▁qran	-11.183
▁try	-11.183
▁اڈے	-11.1831
▁وڈیو	-11.1831
▁dalain	-11.1831
▁awaz	-11.1831
▁ورنہ	-11.1832
▁بج	-11.1832
▁sunan	-11.1832
▁hindu	-11.1835
▁paste	-11.1835
گرام	-11.1835
▁jawaa	-11.1836
▁shabab	-11.1837
▁الاسلام	-11.1837
▁نان	-11.184
▁agr	-11.1841
▁khilta	-11.1842
▁ayaan	-11.1842
▁lota	-11.1844
▁dari	-11.1847
▁بٹن	-11.1849
▁صفر	-11.185
▁گزارنے	-11.185
▁ٹیچر	-11.1852
▁macha	-11.1853
▁rasai	-11.1853
▁ٹاسک	-11.1855
▁راہل	-11.1856
▁aabi	-11.1856
▁filme	-11.1857
▁pohancha	-11.1858
▁قرضوں	-11.186
▁lagnay	-11.186
▁show	-11.1862
▁نازک	-11.1862
▁مردہ	-11.1865
▁سرما	-11.187
▁ڈیلی	-11.187
▁ایوارڈز	-11.1872
▁گلو	-11.1873
▁بینکنگ	-11.1875
▁عہدوں	-11.1876
ڈنگ	-11.1879
▁Shahi	-11.1881
▁نیازی	-11.1887
▁مہمانوں	-11.1888
بہت	-11.1892
res	-11.19
▁sila	-11.1903
▁pad	-11.1903
-19	-11.1906
کاری	-11.1906
▁take	-11.1909
▁giran	-11.1912
▁dayen	-11.1918
asim	-11.1926
▁پہاڑ	-11.1931
خط	-11.194
▁تے	-11.1943
▁hone	-11.1943
▁nam	-11.1946
▁سما	-11.1948
▁زا	-11.1949
▁ڈالرز	-11.1952
▁56	-11.1969
▁متن	-11.197
جمع	-11.1972
▁،ْ	-11.1984
بعد	-11.1987
ضلع	-11.1987
▁Ar	-11.1989
فین	-11.1991
▁دھر	-11.1994
37	-11.1994
چن	-11.1996
▁پلاٹ	-11.1999
▁mk	-11.1999
▁karwan	-11.2001
ous	-11.2007
▁قربان	-11.2012
▁لبنان	-11.2013
▁فلاح	-11.2013
▁فنکار	-11.2026
▁آئند	-11.2029
▁رسا	-11.2029
▁khabr	-11.2032
▁مصطفی	-11.204
▁1992	-11.204
▁Dubai	-11.204
▁Nisar	-11.204
▁Raqba	-11.204
▁Yafta	-11.204
▁ahmad	-11.204
▁alhamdulillah	-11.204
▁badolat	-11.204
▁buht	-11.204
▁faraaq	-11.204
▁hochuka	-11.204
▁ijaad	-11.204
▁intiqam	-11.204
▁khoshion	-11.204
▁mujrim	-11.204
▁mukhatib	-11.204
▁namumkin	-11.204
▁القاعدہ	-11.204
▁بیٹسمین	-11.204
▁تحویل	-11.204
▁تعاقب	-11.204
▁ذوالفقار	-11.204
▁سنجیدہ	-11.204
▁طلاق	-11.204
▁مؤقف	-11.204
▁محاذ	-11.204
▁مخاطب	-11.204
▁مراحل	-11.204
▁چکوال	-11.204
▁ہنگامہ	-11.204
▁darbaar	-11.204
▁marahil	-11.204
▁mourr	-11.204
▁شاداب	-11.204
▁فکسنگ	-11.204
▁رسالت	-11.204
▁گہری	-11.204
▁روبوٹ	-11.204
▁alawa	-11.204
▁مغل	-11.204
▁نسبت	-11.204
▁اخوان	-11.204
▁نفری	-11.2041
▁ساخت	-11.2041
▁قبرستان	-11.2041
▁qadmon	-11.2041
▁آسمان	-11.2041
▁manfi	-11.2041
▁ٹھوس	-11.2041
▁ٹھہر	-11.2042
▁haath	-11.2042
▁اکمل	-11.2043
▁راکٹ	-11.2043
▁magr	-11.2044
▁allah	-11.2044
▁lut	-11.2044
▁tohfa	-11.2045
▁ٹریڈ	-11.2045
▁koee	-11.2045
▁No	-11.2045
▁ہوجاتا	-11.2049
hram	-11.2049
▁بمباری	-11.205
lic	-11.2051
▁peetay	-11.2051
▁sabhib	-11.2052
▁کرسکتی	-11.2056
▁بائیں	-11.2056
▁امکانات	-11.2057
▁شمسی	-11.2059
▁کھیلتے	-11.206
▁سان	-11.2061
▁یاہو	-11.2067
▁ووٹنگ	-11.2067
▁لگوا	-11.2069
▁کیمپس	-11.2073
ادہ	-11.2076
▁مارنے	-11.2076
▁bantay	-11.2079
▁chahi	-11.208
▁مایوسی	-11.2082
▁بابا	-11.2083
▁52	-11.2085
▁پڑھی	-11.209
▁خرابی	-11.2094
▁لکھے	-11.2095
▁دستی	-11.2097
▁janam	-11.2099
▁66	-11.2099
▁jabeen	-11.2099
▁saazi	-11.2101
▁gas	-11.2105
▁ہمدردی	-11.2105
▁بانڈ	-11.2105
▁اپر	-11.2108
▁بھون	-11.2123
▁فالو	-11.2124
▁taza	-11.2126
▁rehtay	-11.2128
بھارت	-11.2135
▁تھاکہ	-11.2138
..	-11.2147
▁nadi	-11.2152
▁شماری	-11.2159
▁sochon	-11.2161
▁ٹم	-11.2189
▁دال	-11.2189
نومبر	-11.2204
چوہدری	-11.2204
مختار	-11.2204
طالب	-11.2205
mam	-11.2212
▁moti	-11.2218
▁adakar	-11.2219
▁بائیو	-11.2222
▁جما	-11.2223
ورا	-11.2234
▁ruswa	-11.224
▁chakka	-11.2241
▁جیتے	-11.2241
▁talkh	-11.2246
▁اصلاح	-11.2247
▁dy	-11.2247
▁چٹ	-11.2249
▁bhut	-11.2253
▁taqreeb	-11.2254
▁اندرون	-11.2254
▁Abaid	-11.2258
▁address	-11.2258
▁bapaa	-11.2258
▁gireybn	-11.2258
▁lughat	-11.2258
▁mansab	-11.2258
▁mohajir	-11.2258
▁muzahira	-11.2258
▁pakistani	-11.2258
▁pheink	-11.2258
▁puchhte	-11.2258
▁salahiyat	-11.2258
▁tahaffuz	-11.2258
▁youtube	-11.2258
▁zahuur	-11.2258
▁آتشزدگی	-11.2258
▁آرگنائزیشن	-11.2258
▁دھماکا	-11.2258
▁نقطہ	-11.2258
▁پروڈیوسر	-11.2258
▁کلثوم	-11.2258
▁گنجائش	-11.2258
▁hashmi	-11.2258
▁jahannum	-11.2258
▁lamhe	-11.2258
▁انویسٹی	-11.2258
▁دوپہر	-11.2258
▁فوٹیج	-11.2258
▁gardan	-11.2258
▁جتنی	-11.2258
▁سٹیڈیم	-11.2258
▁aandhi	-11.2258
▁ajata	-11.2258
▁ریسرچ	-11.2258
▁قلت	-11.2258
▁navy	-11.2258
▁ادیب	-11.2258
▁محفل	-11.2258
▁اُنہوں	-11.2259
▁Ga	-11.226
▁چچا	-11.226
▁آزما	-11.2261
▁ghalatiyan	-11.2261
▁ایشین	-11.2261
▁میمن	-11.2261
▁kabool	-11.2262
▁وارنٹ	-11.2263
▁کلچر	-11.2264
▁سٹیشن	-11.2264
▁آنسو	-11.2265
▁dohra	-11.2266
▁kul	-11.2267
▁andheray	-11.2267
▁Shahab	-11.2267
▁51	-11.2267
▁براڈ	-11.2267
▁masal	-11.2268
▁مچل	-11.2268
▁جنید	-11.227
▁54	-11.2271
▁ulta	-11.2275
▁marz	-11.2276
▁road	-11.2278
▁سینٹی	-11.2279
▁جد	-11.2279
▁تبدیلیاں	-11.2279
▁71	-11.228
ban	-11.228
▁تعمیراتی	-11.2281
▁nikaltay	-11.2282
▁احتیاط	-11.2283
▁جانتا	-11.2289
▁فام	-11.2289
wer	-11.2296
دُ	-11.2297
▁parast	-11.2302
▁sf	-11.231
▁Nay	-11.2311
▁اشتہار	-11.2311
▁ہنر	-11.2312
93	-11.2313
65	-11.2322
▁۔۔۔	-11.2323
▁انچ	-11.2328
▁عثمانی	-11.2328
▁سواتی	-11.2335
▁وفا	-11.2339
▁چیزوں	-11.234
▁And	-11.2349
بھا	-11.235
saan	-11.2361
▁dino	-11.2361
▁فلمیں	-11.2362
ئوں	-11.2362
۔ذرائع	-11.2362
yr	-11.2383
▁giri	-11.2389
▁گائے	-11.2392
▁Lo	-11.24
▁سکتے۔	-11.241
▁سیکھ	-11.2413
▁zayad	-11.2415
شریف	-11.2422
اجلاس	-11.2426
▁pohanch	-11.2427
500	-11.2436
▁bagh	-11.2437
▁گنگ	-11.2441
▁چوٹ	-11.245
▁اصول	-11.2461
▁ویو	-11.2461
▁بارود	-11.2462
▁aapne	-11.2464
▁متنازع	-11.2469
▁marhala	-11.2471
▁andhera	-11.2471
▁Zohra	-11.2471
▁ونگ	-11.2472
▁waisa	-11.2473
▁rakho	-11.2477
▁mehak	-11.2478
▁Bollywood	-11.248
▁alfaaz	-11.248
▁aqval	-11.248
▁brother	-11.248
▁canada	-11.248
▁chairr	-11.248
▁choden	-11.248
▁ghaafil	-11.248
▁hosakay	-11.248
▁mamlaat	-11.248
▁muhayya	-11.248
▁nijaat	-11.248
▁poooray	-11.248
▁rozgaar	-11.248
▁sohbat	-11.248
▁tarmeem	-11.248
▁wajohaat	-11.248
▁المقدس	-11.248
▁اکٹھے	-11.248
▁سرٹیفکیٹ	-11.248
▁غفلت	-11.248
▁muskurany	-11.248
▁papu	-11.248
▁wasif	-11.248
▁آزمائش	-11.248
▁dukhaay	-11.248
▁بھروسہ	-11.248
▁sadaqat	-11.248
▁text	-11.248
▁laanat	-11.248
▁taley	-11.248
▁قطع	-11.248
▁ulti	-11.248
▁santa	-11.248
▁zikria	-11.248
▁WAI	-11.248
▁اسٹیج	-11.2481
▁مائیکل	-11.2481
▁فوراً	-11.2481
▁مصباح	-11.2481
▁مہاجرین	-11.2481
▁چشم	-11.2482
▁ui	-11.2482
▁lub	-11.2482
▁nzr	-11.2483
▁گچھ	-11.2483
▁box	-11.2483
▁اگلی	-11.2483
▁منیجر	-11.2483
▁Kiani	-11.2485
▁عالیہ	-11.2485
▁چلائی	-11.2486
▁Saadat	-11.2486
▁bai	-11.2486
▁عربی	-11.2486
▁وقفے	-11.2487
▁گولڈ	-11.2487
▁فول	-11.2487
▁larnay	-11.2489
▁روپ	-11.249
▁سارہ	-11.2491
▁اعشاریہ	-11.2493
▁پروازیں	-11.2493
▁mulkon	-11.2496
صدر	-11.2497
▁ruswai	-11.2498
▁susti	-11.2499
▁raam	-11.2501
▁چیٹ	-11.2502
▁سینٹرل	-11.2504
▁کتابیں	-11.2504
▁وباء	-11.2509
عمر	-11.2511
▁rehte	-11.2517
▁pareshani	-11.2519
نیوزڈیسک	-11.2519
▁ڈالے	-11.252
▁پنگ	-11.2522
32	-11.2523
▁بِ	-11.2525
▁فائلوں	-11.2526
علم	-11.2527
▁waj	-11.2532
▁فہرستیں	-11.2533
▁نک	-11.2535
▁گولہ	-11.2535
▁chalna	-11.2535
▁جونیئر	-11.2541
▁qanooni	-11.2546
▁ولا	-11.2548
▁Youn	-11.2551
بُ	-11.2555
▁terah	-11.2558
ارم	-11.2564
▁شہزادی	-11.2565
▁goi	-11.2575
▁chla	-11.2579
▁بھیجے	-11.2584
▁phirtay	-11.2596
▁سمت	-11.2605
نگا	-11.2645
▁مانیٹرنگ	-11.2646
▁گروپوں	-11.2651
محکمہ	-11.2653
احمد	-11.2653
▁naara	-11.2656
ہُ	-11.2657
▁ملکیت	-11.266
▁جانیں	-11.2661
بند	-11.2666
مائن	-11.2669
▁joor	-11.2675
▁kiran	-11.2676
▁جز	-11.2689
▁shumal	-11.269
گی۔	-11.269
▁فاتح	-11.2696
لیں	-11.2701
▁wasee	-11.2705
▁tees	-11.2705
▁Behte	-11.2707
▁Ghaznavi	-11.2707
▁Javed	-11.2707
▁Plus	-11.2707
▁Sahiban	-11.2707
▁aetmaad	-11.2707
▁black	-11.2707
▁council	-11.2707
▁dukaan	-11.2707
▁justice	-11.2707
▁madarchod	-11.2707
▁majlis	-11.2707
▁mayoosi	-11.2707
▁muhabat	-11.2707
▁mukamal	-11.2707
▁musannif	-11.2707
▁qayadat	-11.2707
▁wagerna	-11.2707
▁اعمال	-11.2707
▁انتقام	-11.2707
▁تلاوت	-11.2707
▁ریسٹورنٹ	-11.2707
▁زلزلہ	-11.2707
▁سرانجام	-11.2707
▁لائحہ	-11.2707
▁لوڈشیڈنگ	-11.2707
▁مخدوم	-11.2707
▁مظلوم	-11.2707
▁معاشرہ	-11.2707
▁نفاذ	-11.2707
▁چیمبر	-11.2707
▁rashk	-11.2707
▁اکاونٹ	-11.2707
▁بہبود	-11.2707
▁زبیر	-11.2707
▁khalil	-11.2707
▁meetha	-11.2707
▁zimn	-11.2707
▁million	-11.2707
▁sitara	-11.2707
▁راہداری	-11.2707
▁سرجری	-11.2707
▁movie	-11.2707
▁پریمیئر	-11.2707
▁مویشی	-11.2707
▁nasb	-11.2707
▁right	-11.2708
▁malaal	-11.2708
▁گہرائی	-11.2708
▁سوڈان	-11.2708
▁ایڈیٹر	-11.2708
▁pehar	-11.2708
▁گلیڈی	-11.2709
▁yahaan	-11.2709
▁زینب	-11.271
▁ڈھیر	-11.271
▁tasheeh	-11.271
▁1947	-11.2711
▁سیکھنے	-11.2712
▁خلیل	-11.2712
▁شکیل	-11.2712
▁sharait	-11.2712
▁وارانہ	-11.2712
▁kholeen	-11.2713
▁2005	-11.2713
▁کھیت	-11.2714
▁خیل	-11.2715
▁فٹنس	-11.2715
▁مکانات	-11.2715
▁2002	-11.2715
▁مخالفین	-11.2716
▁عہدیداران	-11.2717
▁باڈی	-11.272
▁bun	-11.2722
▁گوئی	-11.2723
ٰہ	-11.2727
▁karwana	-11.2729
▁peeta	-11.2731
▁انگلی	-11.2732
▁tarhan	-11.2734
▁gawah	-11.2737
▁gyi	-11.2737
▁85	-11.2739
▁سستی	-11.2742
▁zam	-11.2742
▁roti	-11.2743
▁under	-11.2743
▁lana	-11.2743
▁زو	-11.2744
48	-11.2751
▁adakara	-11.2754
▁شیل	-11.2754
▁ذیلی	-11.2755
▁ریو	-11.2756
▁جماعتیں	-11.2757
▁pila	-11.2763
است	-11.2764
▁انہوںنے	-11.2766
▁سلیمان	-11.277
AR	-11.2776
جانے	-11.2789
▁مج	-11.2791
▁انسانوں	-11.2793
▁سلی	-11.2794
▁tala	-11.2795
▁سکیم	-11.2796
ive	-11.2798
▁بازوں	-11.2805
▁تفتیشی	-11.2807
▁dot	-11.2813
▁ڈور	-11.2816
▁barhi	-11.2817
والا	-11.2817
▁درمیانی	-11.2822
شام	-11.2824
▁53	-11.2825
▁naar	-11.2826
▁دانت	-11.2833
▁lagay	-11.2842
▁maara	-11.2847
▁راجا	-11.2852
▁تہ	-11.2858
دیا۔	-11.2876
▁kiss	-11.2878
uc	-11.2879
▁دھار	-11.2883
ww	-11.2883
▁68	-11.2885
▁ash	-11.2887
2015	-11.2889
اپنی	-11.2892
▁آپریشنز	-11.2892
سکتا	-11.2895
فورڈ	-11.2896
▁مائی	-11.2897
▁داخلی	-11.2898
▁وصولی	-11.2904
▁دہشتگرد	-11.291
▁آرائی	-11.2921
غر	-11.2923
▁vo	-11.2932
پارٹ	-11.2935
▁waqf	-11.2936
▁barq	-11.2937
▁ulat	-11.2937
▁muskura	-11.2938
▁Nawaz	-11.2939
▁army	-11.294
▁behnoon	-11.294
▁bigaar	-11.294
▁bulbul	-11.294
▁bunyadi	-11.294
▁faraiz	-11.294
▁farmia	-11.294
▁farogh	-11.294
▁jhalak	-11.294
▁misalein	-11.294
▁sadqy	-11.294
▁تحفہ	-11.294
▁دعوے	-11.294
▁رابطوں	-11.294
▁سنگاپور	-11.294
▁سیکڑوں	-11.294
▁ضابطہ	-11.294
▁عدنان	-11.294
▁مانچسٹر	-11.294
▁مضامین	-11.294
▁موازنہ	-11.294
▁کےمطابق	-11.294
▁bachney	-11.294
▁nakami	-11.294
▁ubhar	-11.294
▁رضوی	-11.294
▁رینکنگ	-11.294
▁ناقص	-11.294
▁عوض	-11.294
▁برادران	-11.294
▁آمیز	-11.294
▁gamoon	-11.294
▁solah	-11.294
▁رونما	-11.294
▁lagaata	-11.294
▁Dawer	-11.294
▁خرم	-11.294
▁muqami	-11.294
▁doosra	-11.294
▁ravani	-11.2941
▁gardish	-11.2941
▁chawal	-11.2941
▁layein	-11.2941
▁gumaan	-11.2942
▁اسٹریٹ	-11.2942
▁1990	-11.2943
▁آسام	-11.2943
▁ویرات	-11.2944
▁نظم	-11.2945
▁پھیر	-11.2945
▁nawaze	-11.2946
▁yoni	-11.2946
▁ہولڈرز	-11.2946
▁Far	-11.2947
▁pedawar	-11.2947
▁آدھا	-11.2947
▁ghark	-11.2949
▁نجم	-11.2949
▁سنبھالنے	-11.2949
▁خو	-11.2949
لینڈ	-11.2951
▁کرنل	-11.2951
▁سمجھتا	-11.2953
▁nawazi	-11.2953
▁make	-11.2953
▁ajar	-11.2954
▁سرکل	-11.2955
▁sanat	-11.2955
▁پھیلنے	-11.2956
▁سٹیٹ	-11.2956
▁چکر	-11.2957
▁تنازعہ	-11.2958
▁انصاری	-11.2958
▁Aai	-11.2962
▁ہورہے	-11.2962
▁سوئی	-11.2963
▁شرم	-11.2971
▁اٹھارہ	-11.2971
▁64	-11.2977
▁hamd	-11.2978
▁مجرموں	-11.2983
▁شبہ	-11.2984
▁نیٹو	-11.2985
▁پرانی	-11.2987
▁ہنس	-11.299
▁قربانیوں	-11.2992
▁تنخواہوں	-11.2995
▁sochna	-11.2996
▁maslan	-11.3001
▁جہازوں	-11.3002
▁کردیے	-11.3003
تھا۔	-11.301
▁بازاروں	-11.3013
▁aaee	-11.3014
▁فاروقی	-11.3015
▁new	-11.3023
▁apney	-11.3025
▁قیدی	-11.3036
▁1000	-11.3038
گیا۔	-11.3044
qu	-11.305
▁ارد	-11.3056
۔دوسری	-11.3058
▁پردہ	-11.3063
▁zabardasti	-11.3064
▁فرا	-11.3067
▁jou	-11.3076
▁پہنچیں	-11.3079
▁کئے۔	-11.3083
▁پکڑا	-11.3085
▁قائمہ	-11.3087
▁شیو	-11.3104
▁اشتہاری	-11.3105
▁ٹکرا	-11.3116
▁bn	-11.3122
▁نیت	-11.3122
تشدد	-11.3124
جنوری	-11.3127
جیو	-11.3131
53	-11.3145
▁dem	-11.3149
▁roman	-11.315
sho	-11.3152
▁jail	-11.3155
90	-11.3155
ral	-11.3156
▁وقف	-11.3159
▁باتوں	-11.317
▁اخراج	-11.3173
▁safai	-11.3175
▁add	-11.3175
▁دوا	-11.3177
▁اوکاڑہ	-11.3178
▁Ashraf	-11.3178
▁Basheer	-11.3178
▁International	-11.3178
▁hungama	-11.3178
▁hyderabad	-11.3178
▁ihtimaam	-11.3178
▁information	-11.3178
▁jarjya	-11.3178
▁lamhon	-11.3178
▁museebat	-11.3178
▁mustafi	-11.3178
▁prishan	-11.3178
▁qiyam	-11.3178
▁sambhaal	-11.3178
▁security	-11.3178
▁tijarat	-11.3178
▁اعتبار	-11.3178
▁ایجنڈے	-11.3178
▁ایڈوکیٹ	-11.3178
▁باؤلنگ	-11.3178
▁بندرگاہ	-11.3178
▁تبادلے	-11.3178
▁دستبردار	-11.3178
▁چھاپے	-11.3178
▁Hamid	-11.3178
▁Saror	-11.3178
▁chuney	-11.3178
▁برٹش	-11.3178
▁نواحی	-11.3178
▁چہرہ	-11.3178
▁ڈھونڈ	-11.3178
▁Sahb	-11.3178
▁bistar	-11.3178
▁چوہان	-11.3178
▁iasi	-11.3178
▁waadi	-11.3178
▁لہسن	-11.3178
▁کیٹیگری	-11.3178
▁faraar	-11.3178
▁yasir	-11.3178
▁tenu	-11.3178
▁عقل	-11.3178
▁وجود	-11.3178
▁Khuda	-11.3178
▁شارٹ	-11.3179
▁charcha	-11.3179
▁تناؤ	-11.318
▁mantay	-11.318
▁سنیما	-11.3182
▁Shami	-11.3182
▁فرنٹ	-11.3183
▁نوید	-11.3183
▁سفارشات	-11.3184
▁خوانی	-11.3184
▁faaslay	-11.3185
▁ٹیبل	-11.3186
▁Pro	-11.3186
▁ویمن	-11.3187
▁amlay	-11.3188
▁الرٹ	-11.3188
▁کھاتے	-11.3188
▁خواہشات	-11.3188
▁han	-11.3189
▁qadar	-11.319
▁سنٹرل	-11.3191
▁گنج	-11.3192
▁آرہا	-11.3192
▁ہارون	-11.3192
▁Tum	-11.3193
▁sheesha	-11.3194
▁آوٹ	-11.3195
▁teesray	-11.3195
▁jazbay	-11.3196
▁سمجھنے	-11.3198
▁نمو	-11.32
▁شیریں	-11.32
▁زیدی	-11.32
▁کہناتھا	-11.3202
▁chaat	-11.3207
▁halal	-11.3209
▁aahat	-11.3213
▁پوپ	-11.3227
▁aaey	-11.3233
▁برو	-11.3238
▁عورتوں	-11.3239
08	-11.3243
▁حکمرانی	-11.3257
▁لل	-11.3258
▁بہا	-11.3262
▁abba	-11.3264
▁dilchaspi	-11.3266
▁کلین	-11.3268
بانی	-11.3277
▁pasandi	-11.3277
▁rasa	-11.328
▁تربیتی	-11.3285
▁hoto	-11.3286
▁لگیں	-11.3288
▁واک	-11.3292
یئرز	-11.3294
▁اسپتالوں	-11.3305
ولا	-11.3315
▁dish	-11.3318
▁geer	-11.3324
سید	-11.3336
▁600	-11.3342
اطلاعات	-11.3368
خیر	-11.3379
▁num	-11.338
▁katay	-11.3388
ight	-11.3391
▁her	-11.34
▁jor	-11.3402
▁مشق	-11.3403
▁بردار	-11.3405
نیب	-11.3414
▁ungli	-11.3415
▁ohda	-11.3417
▁Kamraan	-11.3422
▁Network	-11.3422
▁YAY	-11.3422
▁dewaron	-11.3422
▁falsafay	-11.3422
▁feham	-11.3422
▁geherai	-11.3422
▁mehv	-11.3422
▁mukhalif	-11.3422
▁mumlikat	-11.3422
▁munaqqid	-11.3422
▁policy	-11.3422
▁qiyaas	-11.3422
▁rujoo	-11.3422
▁راجستھان	-11.3422
▁عیسیٰ	-11.3422
▁مظہر	-11.3422
▁وزیرداخلہ	-11.3422
▁کترینہ	-11.3422
▁Gulshan	-11.3422
▁easy	-11.3422
▁jaahil	-11.3422
▁major	-11.3422
▁qaail	-11.3422
▁qaazi	-11.3422
▁taasub	-11.3422
▁خزانے	-11.3422
▁خوشخبری	-11.3422
▁فاضل	-11.3422
▁khech	-11.3422
▁لپیٹ	-11.3422
▁پریکٹس	-11.3422
▁hareef	-11.3422
▁kawish	-11.3422
▁یاسمین	-11.3422
▁انخلا	-11.3422
▁idea	-11.3422
▁kardoon	-11.3422
▁مدنظر	-11.3422
▁Younis	-11.3422
▁طبقہ	-11.3422
▁ہائوس	-11.3422
▁bhoot	-11.3422
▁دلہن	-11.3422
▁بائیڈن	-11.3423
▁ڈوگر	-11.3423
▁برباد	-11.3423
▁سلنڈر	-11.3424
ں۔	-11.3424
▁عرض	-11.3424
▁بدنام	-11.3424
▁sister	-11.3425
▁سائبر	-11.3425
▁salebi	-11.3426
▁pattay	-11.3427
▁aish	-11.3428
▁اجراء	-11.3428
▁farsh	-11.3428
▁ایٹرز	-11.3428
▁guzarish	-11.3429
ائڈ	-11.3429
▁علمائے	-11.343
▁baqa	-11.3431
▁یاسین	-11.3433
▁سستا	-11.3439
▁beche	-11.3439
▁roka	-11.3441
▁دھون	-11.3443
▁alum	-11.3443
▁barhti	-11.3444
▁ورکنگ	-11.3446
▁سیٹھی	-11.3446
▁دیدیا	-11.3447
▁بدلے	-11.3454
▁نقصانات	-11.3454
▁sakhta	-11.3454
▁maanta	-11.3457
▁سیکرٹریٹ	-11.3457
ph	-11.3465
▁zaraye	-11.3466
▁aha	-11.3474
▁فرح	-11.3474
▁بنتی	-11.3475
▁x	-11.3475
▁الجھ	-11.3478
▁انٹری	-11.3485
راہ	-11.3487
▁ڈرا	-11.3488
▁لاس	-11.349
▁جلال	-11.3503
▁گرما	-11.3504
نسل	-11.3515
▁مدر	-11.3515
▁rangon	-11.3517
▁sadar	-11.3518
▁Har	-11.3528
▁sabir	-11.354
▁ghat	-11.3544
▁بھری	-11.3554
▁nin	-11.3563
les	-11.3565
▁پیڈ	-11.357
▁پولی	-11.3578
▁hiss	-11.3578
▁You	-11.3591
▁بدر	-11.3602
.2	-11.3606
اکتوبر	-11.3618
بال	-11.3621
ard	-11.3625
مست	-11.3635
▁ہوسکی	-11.3639
▁اگ	-11.3641
59	-11.3643
▁پارٹیوں	-11.3644
▁پارلیمان	-11.3645
▁rad	-11.3645
▁muflis	-11.3654
▁کینیا	-11.3658
▁jamhoori	-11.3662
▁fasana	-11.3662
گا۔	-11.3666
▁tayyar	-11.3667
▁ulma	-11.367
▁ابتدا	-11.367
▁Danish	-11.3672
▁ahthyat	-11.3672
▁asmano	-11.3672
▁bohut	-11.3672
▁chahanay	-11.3672
▁company	-11.3672
▁gunaaho	-11.3672
▁khoubsurti	-11.3672
▁maqasid	-11.3672
▁maseeh	-11.3672
▁mazakraat	-11.3672
▁raqeeb	-11.3672
▁rishwat	-11.3672
▁rizaq	-11.3672
▁salgirah	-11.3672
▁shaksiaat	-11.3672
▁tashkeel	-11.3672
▁آکسیجن	-11.3672
▁استعفے	-11.3672
▁تشہیر	-11.3672
▁خوشگوار	-11.3672
▁سمجھوتہ	-11.3672
▁فاصلے	-11.3672
▁منتظر	-11.3672
▁نجکاری	-11.3672
▁پراپرٹی	-11.3672
▁maarny	-11.3672
▁mabni	-11.3672
▁ticket	-11.3672
▁تنویر	-11.3672
▁علوم	-11.3672
▁وارننگ	-11.3672
▁پیشرفت	-11.3672
▁گلزار	-11.3672
▁bikhat	-11.3672
▁طبیعت	-11.3672
▁فیاض	-11.3672
▁نعمت	-11.3672
▁کتنا	-11.3672
▁qalb	-11.3672
▁نعش	-11.3672
▁karwnay	-11.3672
▁naram	-11.3672
▁nuaa	-11.3672
▁airport	-11.3672
▁آلودگی	-11.3672
▁kardah	-11.3672
▁surat	-11.3673
▁راحت	-11.3673
▁چوتھی	-11.3673
▁ہالینڈ	-11.3673
▁khayalon	-11.3673
▁Live	-11.3673
▁Ya	-11.3673
▁دیہات	-11.3674
▁دربار	-11.3674
▁انسٹال	-11.3675
▁کلیدی	-11.3675
▁جملہ	-11.3675
▁pallay	-11.3675
▁ہلدی	-11.3675
▁دھوکہ	-11.3675
▁بارگاہ	-11.3676
▁lake	-11.3676
▁Parah	-11.3677
89	-11.3678
▁parhaiz	-11.3679
▁Sami	-11.368
▁batatay	-11.368
▁jamea	-11.368
جون	-11.368
▁pounchanay	-11.3681
▁بارڈر	-11.3683
▁tib	-11.3683
▁ہانگ	-11.3684
▁99	-11.3684
▁sites	-11.3686
▁ٹیگ	-11.3686
▁گزرنے	-11.3688
▁انکشافات	-11.3688
▁farmaan	-11.3689
▁سپیشل	-11.369
▁الج	-11.3691
▁نوا	-11.3691
▁barqi	-11.3693
▁کنگز	-11.3693
▁قطرے	-11.3696
▁Ny	-11.3697
▁baqiya	-11.3698
▁انڈے	-11.37
▁داریاں	-11.3702
▁جاگ	-11.3704
▁Read	-11.3705
▁have	-11.3705
▁shamat	-11.3706
▁حاملہ	-11.3706
▁ماسکو	-11.371
کَ	-11.3711
▁مزدوروں	-11.3711
▁ایون	-11.3715
▁سونا	-11.3721
▁barhay	-11.3722
▁woon	-11.3723
▁مارٹن	-11.3731
adar	-11.3733
▁180	-11.3734
▁parhta	-11.3734
▁نکلا	-11.3742
نسا	-11.3754
▁ترکیب	-11.3762
▁ملنا	-11.3763
▁haya	-11.3769
▁گیت	-11.3772
▁bahaal	-11.379
▁چوکی	-11.3797
▁ہوش	-11.3797
▁جاکر	-11.38
▁رگ	-11.3805
▁جایا	-11.3809
▁wy	-11.3809
ہیں۔	-11.3814
ble	-11.3832
▁jins	-11.3838
▁ڈھا	-11.3845
▁ost	-11.3847
▁پیما	-11.3849
▁sunna	-11.3849
▁guzari	-11.3849
▁ایشو	-11.3862
Z	-11.3874
ستمبر	-11.3874
جماعت	-11.3874
.1	-11.3875
نواز	-11.3881
صف	-11.3892
54	-11.3898
▁مقدم	-11.3906
▁ee	-11.3916
▁ریٹائر	-11.3925
▁ata	-11.3925
▁مجاہد	-11.3925
▁command	-11.3926
▁halqa	-11.3926
▁القادری	-11.3926
▁صلاح	-11.3927
▁اصغر	-11.3928
▁Hazam	-11.3928
▁Jaffer	-11.3928
▁Tarfah	-11.3928
▁UrduPoint	-11.3928
▁bheek	-11.3928
▁cheharon	-11.3928
▁chhorey	-11.3928
▁chicken	-11.3928
▁dhoandne	-11.3928
▁fuzool	-11.3928
▁gunjaish	-11.3928
▁huvay	-11.3928
▁intekhab	-11.3928
▁koochy	-11.3928
▁lateeni	-11.3928
▁maeeshat	-11.3928
▁mukhlis	-11.3928
▁munsalik	-11.3928
▁samjhti	-11.3928
▁shakista	-11.3928
▁sharafat	-11.3928
▁tameez	-11.3928
▁zayeqa	-11.3928
▁احاطہ	-11.3928
▁اعدادوشمار	-11.3928
▁باشندوں	-11.3928
▁بدعنوانی	-11.3928
▁جذبہ	-11.3928
▁دوطرفہ	-11.3928
▁صفحات	-11.3928
▁قذافی	-11.3928
▁قواعد	-11.3928
▁پلوامہ	-11.3928
▁astonya	-11.3928
▁mashq	-11.3928
▁phair	-11.3928
▁pighal	-11.3928
▁اقدار	-11.3928
▁لمحہ	-11.3928
▁تائید	-11.3928
▁نعمان	-11.3928
▁ہمسایہ	-11.3928
▁baaki	-11.3928
▁حلقے	-11.3928
▁ismael	-11.3928
▁nashen	-11.3928
▁سٹریٹ	-11.3928
▁beedar	-11.3928
▁موزوں	-11.3928
▁سلیکشن	-11.3928
▁موسیٰ	-11.3928
▁khadsha	-11.3929
▁ہونیوالے	-11.3929
▁بظاہر	-11.3929
▁تاثر	-11.3929
▁قضا	-11.3929
▁نائٹ	-11.3929
▁واجد	-11.3929
▁breaking	-11.3929
▁khalaa	-11.3929
▁chalees	-11.3929
▁eesa	-11.3929
▁daraaz	-11.393
▁بیسویں	-11.393
▁شرعی	-11.393
▁داغ	-11.393
▁shahid	-11.393
▁pehan	-11.3931
▁agha	-11.3931
▁bakra	-11.3931
▁جھا	-11.3932
▁kaahe	-11.3933
▁چکن	-11.3933
عید	-11.3935
▁شبیر	-11.3935
▁وبائی	-11.3935
▁qaza	-11.3935
▁bsm	-11.3936
▁dhak	-11.3936
▁khaaliq	-11.3938
▁saraab	-11.3938
▁zayan	-11.3938
▁برتن	-11.3939
▁baki	-11.3939
▁aftaari	-11.3939
▁فاتحہ	-11.3941
▁moka	-11.3941
▁laatay	-11.3941
▁سنایا	-11.3942
▁seedhay	-11.3943
▁کرناٹک	-11.3944
▁millat	-11.3945
▁tarre	-11.3946
▁مشقوں	-11.3948
▁یونی	-11.3949
▁دانتوں	-11.395
▁nawab	-11.3951
▁ہاؤسنگ	-11.3956
▁ikhlaqi	-11.396
▁roosi	-11.3963
▁its	-11.3968
▁shaks	-11.3971
▁بور	-11.3977
▁بنائے۔	-11.3982
▁بجھ	-11.3988
▁بنتا	-11.4004
▁maari	-11.4008
▁zard	-11.4012
لائن	-11.4016
▁gaz	-11.4026
▁taari	-11.4026
▁taleemi	-11.4032
▁banin	-11.4035
▁سیلز	-11.4038
تھے	-11.4042
▁ووٹوں	-11.4052
مارٹن	-11.4055
▁It	-11.4056
▁youn	-11.4072
87	-11.4073
روس	-11.4074
▁mut	-11.4074
▁raj	-11.4082
▁78	-11.409
▁نیم	-11.4094
▁پکار	-11.4097
94	-11.4101
▁سجاد	-11.4105
شَ	-11.4113
▁hr	-11.4129
کاروں	-11.4135
ترجمان	-11.4137
▁بہر	-11.4153
پریس	-11.4155
▁خلیج	-11.4164
46	-11.4167
app	-11.4173
▁mamool	-11.4174
▁فال	-11.4174
▁میت	-11.4176
▁ڈیوائس	-11.4182
▁جھڑپ	-11.4186
▁اسمگل	-11.4186
گئے	-11.419
▁Ahsen	-11.4191
▁beryani	-11.4191
▁century	-11.4191
▁hochuki	-11.4191
▁jhagra	-11.4191
▁klov	-11.4191
▁kusar	-11.4191
▁larkoon	-11.4191
▁members	-11.4191
▁mozuaat	-11.4191
▁pashto	-11.4191
▁provide	-11.4191
▁riwayaat	-11.4191
▁ruut	-11.4191
▁shafqat	-11.4191
▁shagird	-11.4191
▁shanakht	-11.4191
▁writer	-11.4191
▁wusat	-11.4191
▁ziyarat	-11.4191
▁استفسار	-11.4191
▁تارکین	-11.4191
▁خلاصہ	-11.4191
▁شفیق	-11.4191
▁مخلوق	-11.4191
▁bheer	-11.4191
▁doosre	-11.4191
▁pichli	-11.4191
▁shayron	-11.4191
▁teacher	-11.4191
▁عندیہ	-11.4191
▁مواصلات	-11.4191
▁نبوت	-11.4191
▁وآلہ	-11.4191
▁south	-11.4191
▁روضہ	-11.4191
▁طبقات	-11.4191
▁فائیو	-11.4191
▁نصاب	-11.4191
▁asmat	-11.4191
▁ہجوم	-11.4191
▁paisa	-11.4191
▁اکنامک	-11.4191
▁مراکش	-11.4191
▁suray	-11.4191
▁رمیز	-11.4191
▁وضع	-11.4191
▁ٹیلنٹ	-11.4191
▁haliya	-11.4191
▁saanp	-11.4191
▁kabaab	-11.4191
▁سٹاک	-11.4191
▁namaloom	-11.4191
▁mnh	-11.4191
▁karnaama	-11.4191
▁نسخ	-11.4191
▁ورثا	-11.4191
▁گستاخی	-11.4191
▁bundon	-11.4192
▁hudood	-11.4192
▁اُٹھا	-11.4192
▁guria	-11.4192
▁کوشاں	-11.4192
▁غرض	-11.4192
▁larke	-11.4192
▁سکون	-11.4193
▁ashaat	-11.4193
▁پرائمری	-11.4193
▁masood	-11.4193
▁rhiye	-11.4193
▁balke	-11.4193
▁کیمروں	-11.4193
▁simt	-11.4193
▁khaima	-11.4193
▁گھبرا	-11.4194
▁میڈل	-11.4194
▁manoo	-11.4194
▁جھگڑا	-11.4194
▁پسندیدہ	-11.4195
بندی	-11.4195
▁چوتھا	-11.4195
▁برگ	-11.4196
▁وزیرخارجہ	-11.4196
▁good	-11.4197
▁دلوں	-11.4197
▁تنازعات	-11.4197
▁tawanai	-11.4198
▁farishtay	-11.4198
▁aib	-11.4199
▁دلایا	-11.42
▁nawaza	-11.4201
▁دانش	-11.4201
▁zia	-11.4203
▁faiday	-11.4203
▁نمازیوں	-11.4204
▁ناٹ	-11.4206
▁پلاننگ	-11.4208
▁جعفریہ	-11.4209
▁foran	-11.4209
▁رویے	-11.421
▁pnd	-11.4211
▁dairay	-11.4211
▁اغواء	-11.4213
▁میٹرک	-11.4213
▁اصولوں	-11.4214
▁jamaaton	-11.4217
67	-11.4221
▁jim	-11.4221
▁سائنسز	-11.4226
▁یونٹس	-11.4226
رہی	-11.4226
▁posh	-11.4226
▁گرل	-11.4228
▁لاتے	-11.4229
▁leni	-11.4232
▁جوانوں	-11.4232
▁منع	-11.4235
▁phaily	-11.4235
▁پکا	-11.4237
▁مُ	-11.4238
▁ایڈز	-11.4238
▁aloom	-11.4239
نیٹ	-11.4243
▁koyi	-11.4245
▁دماغی	-11.4252
for	-11.4253
▁لاشوں	-11.4254
low	-11.4254
▁jalay	-11.426
''	-11.4262
▁میز	-11.4266
▁شہدا	-11.4267
▁فریم	-11.4269
▁filmi	-11.4276
▁800	-11.4283
▁Si	-11.4283
▁کروائے	-11.4285
▁jeeta	-11.4287
▁86	-11.4291
▁giray	-11.4292
▁بگڑ	-11.4295
▁96	-11.4302
▁بوس	-11.4305
▁کردے	-11.431
▁lain	-11.4313
▁kamar	-11.4322
▁شناختی	-11.4323
▁اداکاروں	-11.4328
▁73	-11.434
▁آخرت	-11.4354
▁ہالی	-11.4355
▁فلائی	-11.436
▁گز	-11.4361
ہمیں	-11.4361
▁khati	-11.4363
▁isse	-11.4393
▁دت	-11.4394
▁Gai	-11.4398
▁رٹ	-11.4399
کلو	-11.4399
▁karlo	-11.44
مولانا	-11.4408
▁Jan	-11.4409
بتایا	-11.4409
▁جیب	-11.4416
اسٹاف	-11.4417
▁بچت	-11.4419
▁لازم	-11.4422
▁kartin	-11.4423
▁جعفر	-11.4432
▁jabar	-11.4434
kat	-11.4435
▁بازیاب	-11.4442
لاک	-11.4443
▁mouti	-11.4446
▁matloob	-11.4452
▁chashma	-11.4452
▁Man	-11.4458
▁Shaukat	-11.4462
▁afsanoon	-11.4462
▁bukhaar	-11.4462
▁gunehgaar	-11.4462
▁hindustani	-11.4462
▁jurrat	-11.4462
▁karkardagi	-11.4462
▁khudkush	-11.4462
▁kursi	-11.4462
▁mahaarat	-11.4462
▁manazair	-11.4462
▁mazzaq	-11.4462
▁mustafa	-11.4462
▁nabwi	-11.4462
▁nzarah	-11.4462
▁paiker	-11.4462
▁puchta	-11.4462
▁salawon	-11.4462
▁tilgo	-11.4462
▁udhaar	-11.4462
▁wickten	-11.4462
▁الیکٹرانک	-11.4462
▁تحلیل	-11.4462
▁فاصلہ	-11.4462
▁قافلے	-11.4462
▁مجوزہ	-11.4462
▁مطلع	-11.4462
▁میریلیبون	-11.4462
▁نیلامی	-11.4462
▁پختون	-11.4462
▁پھانسی	-11.4462
▁کنونشن	-11.4462
▁گریجویٹ	-11.4462
▁Sayeda	-11.4462
▁dozakh	-11.4462
▁fardaa	-11.4462
▁khtama	-11.4462
▁machine	-11.4462
▁masihi	-11.4462
▁nokari	-11.4462
▁yakeeni	-11.4462
▁افسوسناک	-11.4462
▁گامزن	-11.4462
▁adaigi	-11.4462
▁chlye	-11.4462
▁رچرڈ	-11.4462
▁مناظر	-11.4462
▁وعدے	-11.4462
▁khtati	-11.4462
▁Baki	-11.4462
▁badalny	-11.4462
▁پودوں	-11.4462
▁بندوق	-11.4462
▁اشتعال	-11.4462
▁arbo	-11.4462
▁dhaar	-11.4462
▁bakri	-11.4462
▁gehri	-11.4462
▁ہینڈل	-11.4462
▁khabrain	-11.4462
▁التوا	-11.4463
▁بچپن	-11.4463
▁سیریل	-11.4463
▁آریان	-11.4464
▁انجری	-11.4464
▁سحر	-11.4464
▁فاٹا	-11.4465
▁اسپیس	-11.4466
▁ٹائٹل	-11.4466
▁aamaal	-11.4466
▁دریائے	-11.4466
▁adla	-11.4467
▁ویکسینیشن	-11.4467
▁چھڑ	-11.4467
▁وقوعہ	-11.4468
▁نگاہ	-11.4469
▁wake	-11.4469
▁wall	-11.4469
▁پہلو	-11.447
▁شاخ	-11.4471
▁فنڈنگ	-11.4472
▁karanay	-11.4472
▁اثناء	-11.4473
▁پیروی	-11.4473
▁اٹھاتے	-11.4474
▁lambay	-11.4476
میرا	-11.4477
▁bikhare	-11.4478
▁janti	-11.4478
▁عدد	-11.4479
▁mamooli	-11.4479
▁other	-11.448
▁aawar	-11.4485
▁charon	-11.4485
▁فنکاروں	-11.4486
▁ویسے	-11.4488
گیاہے	-11.4488
▁karname	-11.4489
▁نیشن	-11.4489
▁rate	-11.449
▁آٹو	-11.449
▁tall	-11.4491
▁amanat	-11.4492
▁برش	-11.4494
میچ	-11.4495
▁لیوی	-11.4496
▁فلاحی	-11.4496
▁دکانوں	-11.4496
▁دھونی	-11.4502
▁aesi	-11.4506
▁یارک	-11.451
▁sasta	-11.4515
▁پیاز	-11.4517
▁faislay	-11.4523
سری	-11.4524
کرنے	-11.4529
▁میمو	-11.453
▁میلے	-11.4532
▁dya	-11.4532
▁thehra	-11.4535
رئیس	-11.4536
▁نکالی	-11.454
▁اٹھائیں	-11.4541
▁ترمیمی	-11.4542
▁taron	-11.4564
▁جواد	-11.4568
▁lage	-11.4572
▁soti	-11.4572
▁شروعات	-11.458
▁mata	-11.4596
▁karaam	-11.4602
▁kun	-11.4613
▁parcha	-11.4616
▁اقرا	-11.4618
▁83	-11.4619
▁اُردو	-11.4625
▁چھان	-11.4629
برگ	-11.4632
سول	-11.4636
▁سفری	-11.4659
▁79	-11.4669
▁پروف	-11.4677
▁خور	-11.4683
▁قادر	-11.4684
▁taan	-11.4687
تمام	-11.469
▁soon	-11.4693
دہشت	-11.4695
▁بحر	-11.4698
▁kry	-11.47
▁77	-11.4703
▁lagai	-11.4705
96	-11.4707
▁Ke	-11.4716
▁مداح	-11.4721
▁shumar	-11.4721
▁ghanta	-11.473
▁اِ	-11.4731
▁Ansar	-11.4739
▁HOON	-11.4739
▁Norway	-11.4739
▁Pazeer	-11.4739
▁Sabiqa	-11.4739
▁ahmed	-11.4739
▁course	-11.4739
▁dushwaar	-11.4739
▁gumraah	-11.4739
▁hamsafar	-11.4739
▁maqabil	-11.4739
▁mulzim	-11.4739
▁muyassar	-11.4739
▁rawabit	-11.4739
▁result	-11.4739
▁rubaroo	-11.4739
▁samjhane	-11.4739
▁taajjub	-11.4739
▁talemaat	-11.4739
▁tension	-11.4739
▁vaastaa	-11.4739
▁دھماکوں	-11.4739
▁ضوابط	-11.4739
▁معاشرتی	-11.4739
▁asaraar	-11.4739
▁proof	-11.4739
▁rawayya	-11.4739
▁uboor	-11.4739
▁yahodi	-11.4739
▁پویلین	-11.4739
▁گھنٹہ	-11.4739
▁senkron	-11.4739
▁ٹرمینل	-11.4739
▁sakoon	-11.4739
▁تارڑ	-11.4739
▁سڈنی	-11.4739
▁ڈراموں	-11.4739
▁dhoondata	-11.4739
▁difaa	-11.4739
▁namona	-11.4739
▁جوائنٹ	-11.4739
▁شریعت	-11.4739
▁saaien	-11.4739
▁thandhi	-11.4739
▁سبسڈی	-11.4739
▁پارٹنر	-11.4739
▁مدارس	-11.4739
▁center	-11.4739
▁حنیف	-11.4739
▁کرچکے	-11.4739
▁مدرسہ	-11.4739
▁hakoomati	-11.474
▁bartan	-11.474
▁plate	-11.474
▁majaz	-11.474
▁کوالٹی	-11.474
▁الحرام	-11.474
▁جنگجوؤں	-11.474
▁shoping	-11.474
▁کورنگی	-11.474
▁چالیس	-11.4741
▁گلوبل	-11.4741
▁جاسوس	-11.4741
▁chunn	-11.4741
▁1979	-11.4742
▁sayahat	-11.4742
▁sookh	-11.4742
▁اقلیتوں	-11.4743
▁wifaqi	-11.4743
▁رشتے	-11.4744
▁ریجنل	-11.4744
▁panch	-11.4744
▁سائیڈ	-11.4745
▁khawahishon	-11.4746
▁ہلکی	-11.4746
▁چھڑک	-11.4746
▁چابی	-11.4746
▁fsd	-11.4747
▁ہرگز	-11.4747
▁دکانیں	-11.4749
▁atomi	-11.475
▁قربانیاں	-11.475
▁فیفا	-11.475
▁کاشتکاروں	-11.4751
▁2001	-11.4751
▁ایوب	-11.4752
▁junoob	-11.4753
▁بدقسمتی	-11.4754
▁کارگو	-11.4758
▁bajay	-11.476
▁لنکن	-11.476
▁بتانا	-11.476
▁برج	-11.4761
▁zyadah	-11.4763
▁aaei	-11.4764
▁نیاز	-11.4765
▁پارکنگ	-11.4767
▁حامیوں	-11.477
▁ayee	-11.477
▁jame	-11.4771
اردو	-11.4773
▁taang	-11.4774
▁لگاتے	-11.4776
▁ہموار	-11.4779
▁دکھائے	-11.4785
▁دھن	-11.4785
▁بتایاکہ	-11.4786
▁لیکس	-11.4786
▁baji	-11.4789
▁چینلز	-11.4793
▁اتحادیوں	-11.4794
▁سٹیل	-11.4796
▁قوتوں	-11.4796
سَ	-11.4799
▁باغی	-11.48
▁زیرِ	-11.4802
▁ghatt	-11.4804
▁عمارتوں	-11.4811
▁اقلیتی	-11.4812
▁gina	-11.4816
▁روزگاری	-11.4818
▁بھیجی	-11.4818
▁سوچا	-11.4819
▁بہنوں	-11.4819
ٹلی	-11.482
ذرائع	-11.4833
▁ڈیزائنر	-11.4844
▁لیتی	-11.4847
▁zari	-11.4854
▁ہلال	-11.4862
▁ہدایتکار	-11.4871
▁ہنٹ	-11.4876
▁بھگت	-11.4883
▁پہاڑی	-11.4884
▁تبدیلیوں	-11.4886
ائیل	-11.489
▁مخ	-11.4895
▁76	-11.4899
▁baatil	-11.4905
▁زمینی	-11.4935
▁98	-11.4944
▁400	-11.4946
▁ڈرائیو	-11.4947
▁zarb	-11.4952
▁phiray	-11.4958
خم	-11.4959
▁paat	-11.4968
▁maai	-11.4974
▁jatan	-11.4981
▁سونپ	-11.4984
منی	-11.4989
▁59	-11.4991
HO	-11.4997
▁حوا	-11.4999
▁ماحولیات	-11.5
▁saman	-11.5011
▁dhamaka	-11.5016
▁batata	-11.5016
▁دھات	-11.5017
▁New	-11.5019
▁افواہ	-11.502
▁ایڈیشن	-11.5022
▁sharai	-11.5023
▁program	-11.5024
Channel	-11.5025
▁Akmal	-11.5025
▁Katrina	-11.5025
▁Rohani	-11.5025
▁asbaab	-11.5025
▁awleen	-11.5025
▁bulaya	-11.5025
▁buzurgon	-11.5025
▁chhuut	-11.5025
▁choudhri	-11.5025
▁falsafah	-11.5025
▁fayrng	-11.5025
▁fazeelat	-11.5025
▁hukmraanon	-11.5025
▁jasakay	-11.5025
▁mazedar	-11.5025
▁project	-11.5025
▁sasural	-11.5025
▁sulah	-11.5025
▁tahreerein	-11.5025
▁zindgi	-11.5025
▁اطہر	-11.5025
▁برطرف	-11.5025
▁تبلیغ	-11.5025
▁تفسیر	-11.5025
▁تمہارے	-11.5025
▁توثیق	-11.5025
▁سپرنٹنڈنٹ	-11.5025
▁عازمین	-11.5025
▁غاصب	-11.5025
▁فلپائن	-11.5025
▁چیمپیئن	-11.5025
▁This	-11.5025
▁comment	-11.5025
▁cover	-11.5025
▁اکائونٹ	-11.5025
▁جڑواں	-11.5025
▁محکموں	-11.5025
▁مرتکب	-11.5025
▁مشورے	-11.5025
▁مہلک	-11.5025
▁dikhla	-11.5025
▁رقص	-11.5025
▁مہلت	-11.5025
▁ورکشاپ	-11.5025
▁leader	-11.5025
▁zarea	-11.5025
▁aqalmand	-11.5025
▁عزیر	-11.5025
▁کھینچ	-11.5025
▁mantaq	-11.5025
▁کرسمس	-11.5025
▁ریزرو	-11.5025
▁جلسوں	-11.5025
▁nanhi	-11.5025
▁nakaat	-11.5025
▁jootay	-11.5025
▁kapron	-11.5025
▁انشاء	-11.5025
▁eyk	-11.5025
▁image	-11.5026
▁mazahiy	-11.5026
▁tips	-11.5026
▁avr	-11.5026
▁nazrain	-11.5027
▁جزوی	-11.5027
▁سراغ	-11.5027
▁parliman	-11.5027
▁رہنمائوں	-11.5027
▁adoor	-11.5028
▁maizn	-11.5028
▁تعمیرات	-11.5028
۔انھوں	-11.5028
▁گرفت	-11.5029
▁میرٹ	-11.5029
▁سٹور	-11.5029
▁chadar	-11.503
▁manen	-11.503
▁jaghe	-11.5031
▁imla	-11.5032
▁ملبے	-11.5032
▁fiqa	-11.5032
▁1960	-11.5033
▁بدن	-11.5035
▁فارمیٹ	-11.5037
▁baani	-11.5037
▁gur	-11.5039
▁قاری	-11.504
▁mashwaray	-11.5041
بول	-11.5042
▁dada	-11.5042
▁آمدن	-11.5043
▁train	-11.5044
▁ابھر	-11.5044
▁jiya	-11.5045
▁mem	-11.5046
▁banon	-11.5047
▁لگتی	-11.5047
▁tasweerai	-11.5047
▁جدہ	-11.5049
▁کامیڈی	-11.505
100	-11.5054
▁ٹرسٹ	-11.5054
▁راؤنڈر	-11.5056
▁مردم	-11.5058
▁الف	-11.506
▁bharak	-11.5061
▁شق	-11.5062
adm	-11.5066
▁ghaliban	-11.5066
▁بستی	-11.5067
▁رسم	-11.5068
▁noha	-11.507
▁قسمت	-11.507
▁aaza	-11.5071
▁nishana	-11.5072
▁aazad	-11.5072
قَ	-11.5073
ہوا	-11.5075
▁حجم	-11.5075
▁بکنگ	-11.5077
▁ویلز	-11.5077
▁پورٹل	-11.5081
▁likhti	-11.5083
▁ترجیحی	-11.5083
▁مچ	-11.5086
▁issay	-11.5093
▁لیتا	-11.5097
▁سکا۔	-11.5104
▁بنتے	-11.5104
▁sakhti	-11.5105
▁سوری	-11.5105
▁salamti	-11.5106
▁Me	-11.5107
▁کرائیں	-11.5111
▁neher	-11.5113
▁دشمنی	-11.5121
tic	-11.5124
▁سولہ	-11.5126
▁تولہ	-11.5143
▁چنا	-11.5147
▁socho	-11.5152
▁aatay	-11.5155
▁رکھا۔	-11.5164
gya	-11.5171
▁جوڑی	-11.5172
▁year	-11.5196
تین	-11.5202
▁زاد	-11.5203
ریڈ	-11.5212
پیری	-11.5213
.8	-11.5221
▁وہاب	-11.5222
▁کلیم	-11.5232
▁منائی	-11.524
▁sunen	-11.5244
▁karaye	-11.5247
▁جوڑا	-11.525
cent	-11.5254
اعظم	-11.5256
▁پہر	-11.526
▁dooba	-11.5263
الیکشن	-11.5266
ہوئے	-11.5279
فَ	-11.5285
شیخ	-11.5286
▁کریگ	-11.5292
▁وسط	-11.5293
▁علمی	-11.5296
▁چاہیئے	-11.5307
▁misra	-11.531
▁faasla	-11.531
▁nibha	-11.5317
▁usmani	-11.5317
ہائی	-11.5318
▁bulaa	-11.5319
▁engine	-11.5319
▁Malang	-11.5319
▁Rawalpindi	-11.5319
▁club	-11.5319
▁hakumat	-11.5319
▁hamdardi	-11.5319
▁izafi	-11.5319
▁khiirad	-11.5319
▁mawaqay	-11.5319
▁qafas	-11.5319
▁screen	-11.5319
▁service	-11.5319
▁tajarbay	-11.5319
▁tauheen	-11.5319
▁tayragi	-11.5319
▁thokar	-11.5319
▁vahm	-11.5319
▁yosfi	-11.5319
▁zeeshan	-11.5319
▁ایجنڈا	-11.5319
▁تجدید	-11.5319
▁تدریس	-11.5319
▁جزیرے	-11.5319
▁حارث	-11.5319
▁ریٹرننگ	-11.5319
▁سیٹلائٹ	-11.5319
▁صہیونی	-11.5319
▁ظالم	-11.5319
▁عمومی	-11.5319
▁فرنچائز	-11.5319
▁لاڑکانہ	-11.5319
▁مربوط	-11.5319
▁daidh	-11.5319
▁بقول	-11.5319
▁روانگی	-11.5319
▁عطیہ	-11.5319
▁عکاسی	-11.5319
▁فرزند	-11.5319
▁میکسیکو	-11.5319
▁نارائن	-11.5319
▁چوبیس	-11.5319
▁khatmay	-11.5319
▁غداری	-11.5319
▁shura	-11.5319
▁ائیرپورٹ	-11.5319
▁jaghon	-11.5319
▁توازن	-11.5319
▁istamal	-11.5319
▁اوائل	-11.5319
▁full	-11.5319
▁krny	-11.5319
▁شعور	-11.5319
▁مصالحت	-11.5319
▁Mehram	-11.5319
▁نفس	-11.5319
▁kazmi	-11.5319
▁taqtee	-11.5319
▁باندھ	-11.5319
▁آرائش	-11.532
▁three	-11.532
▁بابراعظم	-11.532
▁دلکش	-11.532
▁wakeel	-11.532
▁بالآخر	-11.532
▁تعارف	-11.532
▁camera	-11.532
▁parrin	-11.532
▁nafsiat	-11.532
▁سمگل	-11.5321
▁dulhan	-11.5321
▁شفٹ	-11.5322
▁ارجن	-11.5322
▁larkiyan	-11.5323
▁اعلم	-11.5323
▁vji	-11.5323
▁1122	-11.5323
▁mahaal	-11.5323
▁مددگار	-11.5324
▁نوکریاں	-11.5324
▁maangni	-11.5324
▁makr	-11.5324
▁1999	-11.5324
▁فارغ	-11.5324
▁Itra	-11.5324
▁Safi	-11.5324
▁1988	-11.5324
▁اسمگلنگ	-11.5325
▁ساکن	-11.5325
▁درہم	-11.5325
▁faani	-11.5325
▁راشن	-11.5326
▁2004	-11.5327
▁لکھتے	-11.5327
▁رجب	-11.5328
▁karloon	-11.5328
▁Shaam	-11.5328
▁like	-11.5329
▁درانی	-11.533
▁halki	-11.5331
زاد	-11.5331
▁khailtay	-11.5332
▁nojawanon	-11.5332
▁rakhon	-11.5332
▁چاٹ	-11.5333
▁aayd	-11.5333
▁hawale	-11.5333
▁janwaron	-11.5336
▁حلیم	-11.5336
▁مدعو	-11.5337
▁نظیر	-11.5338
▁sooni	-11.5338
▁sift	-11.5339
▁اخبارات	-11.5339
▁بتانے	-11.534
▁متفقہ	-11.5341
▁کھیلی۔	-11.5341
▁habs	-11.5343
▁گلاس	-11.5343
▁مناسبت	-11.5344
▁ہائر	-11.5345
▁نقدی	-11.5346
▁دارانہ	-11.5346
▁saanson	-11.5346
▁لیبر	-11.5352
▁مشینری	-11.5353
▁سکی۔	-11.5354
▁nou	-11.5355
▁maanna	-11.5356
▁دیہی	-11.5356
▁haoo	-11.5359
یکیشن	-11.5363
▁waday	-11.5363
▁qudrati	-11.5365
▁rota	-11.5367
▁کھیلا۔	-11.5367
لاش	-11.5371
▁لکھی	-11.5376
▁اپنایا	-11.5377
▁داران	-11.5378
▁جواز	-11.5379
▁زار	-11.5383
▁کنی	-11.5384
▁گوا	-11.5385
▁سیمنٹ	-11.5386
▁علا	-11.5389
▁قاسمی	-11.5391
▁کپل	-11.5393
▁ٹیبلٹ	-11.5395
شیل	-11.5401
▁جانبدار	-11.5408
▁انکم	-11.5418
▁darta	-11.5418
▁قال	-11.5421
▁میلہ	-11.5429
فلم	-11.5432
84	-11.5432
▁چھوڑا	-11.5433
▁بیٹیوں	-11.5437
▁yaaron	-11.544
▁تیاریوں	-11.5446
▁جنتا	-11.545
▁داس	-11.5457
▁چھوٹ	-11.5457
▁ہونگے۔	-11.5487
َلَ	-11.5494
▁144	-11.553
▁ہمدرد	-11.553
▁کرلیے	-11.5544
▁میو	-11.5548
▁سد	-11.5549
تھل	-11.5556
کشمیر	-11.5557
▁ادبی	-11.5561
aloom	-11.5566
معروف	-11.5568
بچوں	-11.5568
آمد	-11.5569
قائد	-11.5569
▁mot	-11.5572
جہاں	-11.558
▁سونی	-11.559
▁شمس	-11.5598
پبلک	-11.5605
▁sacha	-11.561
▁samna	-11.5613
▁کاغذ	-11.562
▁break	-11.5621
▁Akhrei	-11.5622
▁California	-11.5622
▁Khalq	-11.5622
▁Shamsheer	-11.5622
▁aitraaf	-11.5622
▁androoni	-11.5622
▁angaiz	-11.5622
▁balouch	-11.5622
▁bhejna	-11.5622
▁bzahir	-11.5622
▁culture	-11.5622
▁dakkan	-11.5622
▁darpaish	-11.5622
▁furqat	-11.5622
▁hurmat	-11.5622
▁iOS	-11.5622
▁lkhno	-11.5622
▁mazloom	-11.5622
▁muaqqaf	-11.5622
▁muzammat	-11.5622
▁phansi	-11.5622
▁plus	-11.5622
▁shiddat	-11.5622
▁shoaar	-11.5622
▁stadium	-11.5622
▁typing	-11.5622
▁اطالوی	-11.5622
▁تہذیب	-11.5622
▁زیراہتمام	-11.5622
▁سرفہرست	-11.5622
▁سیالکوٹ	-11.5622
▁لمیٹڈ	-11.5622
▁لیبارٹری	-11.5622
▁مغفرت	-11.5622
▁نذیر	-11.5622
▁نصیب	-11.5622
▁ویلفیئر	-11.5622
▁کیمبرج	-11.5622
▁Munnay	-11.5622
▁amuman	-11.5622
▁apdit	-11.5622
▁تمغہ	-11.5622
▁میوزک	-11.5622
▁پٹواری	-11.5622
▁sanwar	-11.5622
▁عشق	-11.5622
▁radio	-11.5622
▁افطار	-11.5622
▁شمیم	-11.5622
▁(92	-11.5622
▁missile	-11.5622
▁سکنہ	-11.5622
▁jinhen	-11.5622
▁sakhan	-11.5622
▁yonani	-11.5622
▁coat	-11.5622
▁جہاد	-11.5622
▁فلائٹ	-11.5622
▁کرفیو	-11.5623
▁مصطفیٰ	-11.5623
▁aiesa	-11.5623
▁ازخود	-11.5623
▁stor	-11.5623
▁پرساد	-11.5623
▁ضمیر	-11.5623
▁phoot	-11.5623
▁puraka	-11.5623
▁لاگ	-11.5623
▁اکرام	-11.5623
▁ice	-11.5624
▁فسادات	-11.5624
▁blagrz	-11.5625
▁kerti	-11.5625
▁yehii	-11.5625
▁خطیب	-11.5625
▁حمد	-11.5625
▁parwah	-11.5626
▁غسل	-11.5626
▁شئیر	-11.5626
جاتا	-11.5626
▁فرینڈ	-11.5627
▁رسمی	-11.5627
▁mangay	-11.5628
▁recipes	-11.5628
▁nazil	-11.5628
▁فرماتے	-11.5628
▁mitanay	-11.5629
▁چھپانے	-11.5629
▁waiz	-11.5631
▁moqa	-11.5631
▁صو	-11.5631
▁whi	-11.5631
▁muki	-11.5632
▁مکینوں	-11.5633
▁وکشمیر	-11.5633
▁amarat	-11.5634
▁بالغ	-11.5634
▁سائنسدانوں	-11.5637
▁darakhton	-11.5638
▁thoray	-11.5639
▁ground	-11.564
▁فرمان	-11.5641
74	-11.5642
▁معنی	-11.5643
▁daira	-11.5643
▁raatain	-11.5644
▁baet	-11.5645
SA	-11.5645
▁250	-11.5648
▁shaheedon	-11.565
▁العربیہ	-11.5652
▁ghata	-11.5652
▁dekhiye	-11.5653
▁توڑنے	-11.5654
▁جوڑوں	-11.5654
▁hamal	-11.5654
▁ریفرنسز	-11.5655
▁St	-11.5657
▁چلنا	-11.5657
▁بحرین	-11.5658
▁راجن	-11.566
▁لبنانی	-11.5661
▁pahari	-11.5665
▁وارداتوں	-11.5668
▁masti	-11.5668
▁بیٹھا	-11.567
▁ہیں۔انہوں	-11.567
▁سپورٹس	-11.5672
▁نت	-11.5676
▁شاعری	-11.5676
▁صدیق	-11.5676
▁شوٹ	-11.5678
▁tunay	-11.5681
▁inch	-11.5685
▁bho	-11.5691
▁نہاد	-11.5695
▁hang	-11.5696
▁hawae	-11.5698
pk	-11.57
ً	-11.5703
▁فرمائے	-11.5706
▁محب	-11.5706
read	-11.5714
▁ڈائی	-11.5722
دوسری	-11.5724
▁طاقتوں	-11.5726
▁bag	-11.5729
▁دئے	-11.5733
▁ٹول	-11.574
▁ٹینکر	-11.575
گام	-11.5759
▁مِ	-11.576
اصل	-11.577
▁بننا	-11.577
میاں	-11.5772
▁ڈسک	-11.5772
▁banati	-11.5773
▁yaani	-11.5784
ذی	-11.579
▁ایز	-11.5792
2020	-11.5797
▁اماراتی	-11.5812
▁live	-11.5813
▁دیکر	-11.5823
▁harj	-11.5831
▁سج	-11.5832
▁سنگل	-11.5833
میٹر	-11.5838
میڈ	-11.5839
▁pol	-11.5845
▁baag	-11.5848
▁raahi	-11.585
400	-11.5854
▁zada	-11.5855
▁chah	-11.5857
▁نین	-11.5859
▁84	-11.5872
تعلق	-11.5877
ریاں	-11.5878
گرفتار	-11.5881
اپریل	-11.5881
جنرل	-11.5881
▁پائیں	-11.5882
▁کھر	-11.5886
ملزمان	-11.5886
▁بائ	-11.59
ذکر	-11.5902
ھل	-11.5928
▁ijaz	-11.5929
▁APNAY	-11.5935
▁Adeeb	-11.5935
▁Ailiya	-11.5935
▁Fayaz	-11.5935
▁TAK	-11.5935
▁View	-11.5935
▁anasir	-11.5935
▁barqarar	-11.5935
▁bhanwar	-11.5935
▁bismal	-11.5935
▁dakhal	-11.5935
▁darwaish	-11.5935
▁dhagon	-11.5935
▁eewsi	-11.5935
▁express	-11.5935
▁farokht	-11.5935
▁hukmaran	-11.5935
▁hussaini	-11.5935
▁ibrahim	-11.5935
▁infiradi	-11.5935
▁iqbal	-11.5935
▁iztiraab	-11.5935
▁khalifa	-11.5935
▁khanjar	-11.5935
▁khirki	-11.5935
▁masrofiyat	-11.5935
▁mehndi	-11.5935
▁muttahid	-11.5935
▁naakhun	-11.5935
▁panchawan	-11.5935
▁pohnchain	-11.5935
▁tasawuf	-11.5935
▁tehqiqaat	-11.5935
▁ulajh	-11.5935
▁usloob	-11.5935
▁zarurat	-11.5935
▁zillat	-11.5935
▁اعادہ	-11.5935
▁افریقا	-11.5935
▁افعال	-11.5935
▁اہلخانہ	-11.5935
▁تراویح	-11.5935
▁ترغیب	-11.5935
▁جذبے	-11.5935
▁جمشید	-11.5935
▁عذاب	-11.5935
▁مراعات	-11.5935
▁مشکوک	-11.5935
▁ٹماٹر	-11.5935
▁پروٹوکول	-11.5935
▁چنانچہ	-11.5935
▁Khor	-11.5935
▁indies	-11.5935
▁loog	-11.5935
▁mangte	-11.5935
▁view	-11.5935
▁روایات	-11.5935
▁aeinak	-11.5935
▁deramo	-11.5935
▁saneha	-11.5935
▁مسلط	-11.5935
▁وژن	-11.5935
▁ewaan	-11.5935
▁parliment	-11.5935
▁offer	-11.5935
▁gilani	-11.5935
▁حکیم	-11.5935
▁معزز	-11.5935
▁juraim	-11.5935
▁hifz	-11.5935
▁muasar	-11.5935
▁گیلری	-11.5935
▁کائرہ	-11.5936
▁نیپال	-11.5936
▁onche	-11.5937
عوامی	-11.5937
▁روپئے	-11.5937
▁ہاوس	-11.5937
▁دعائیں	-11.5937
▁معالجے	-11.5937
▁yahood	-11.5937
▁dalail	-11.5937
▁khazana	-11.5937
▁charge	-11.5938
▁حسب	-11.5938
▁مارشل	-11.5938
▁toheed	-11.5938
▁malka	-11.5938
▁kije	-11.5938
▁jarr	-11.5938
▁KAR	-11.5938
▁ریشم	-11.5938
▁شاپنگ	-11.5938
▁رائل	-11.5939
▁مجرمانہ	-11.5939
▁سیفٹی	-11.594
▁afkaar	-11.594
▁zalzalay	-11.594
▁گوہر	-11.594
▁پنشن	-11.5941
▁guzaraa	-11.5942
▁سینما	-11.5942
▁khilafat	-11.5944
▁اٹک	-11.5944
▁نیتن	-11.5946
▁آزادانہ	-11.5946
▁bloging	-11.5947
▁bahaq	-11.5948
▁wear	-11.5948
▁user	-11.5949
▁واچ	-11.595
▁پٹیل	-11.5951
▁بڑھایا	-11.5954
▁پڑتال	-11.5954
▁اشتہارات	-11.5954
▁saharay	-11.5956
▁ہائے	-11.5958
▁khaani	-11.5959
▁کربلا	-11.596
▁isharay	-11.5962
▁wm	-11.5963
▁ghareebon	-11.5966
▁حرا	-11.5967
▁سلطانز	-11.5967
▁زمانہ	-11.5969
▁qabzay	-11.597
▁ارون	-11.597
▁koshishen	-11.5973
▁talash	-11.5975
▁دشواری	-11.5975
▁zamanat	-11.5984
▁کمسن	-11.5985
▁درجن	-11.5985
▁کھیلنا	-11.5987
▁peela	-11.5994
▁ملازمتوں	-11.5996
▁جوابات	-11.5997
▁وزارتِ	-11.5998
▁دیوی	-11.6001
▁67	-11.6006
▁darjay	-11.6007
▁geet	-11.6008
98	-11.6009
▁ایپس	-11.6011
▁oho	-11.6012
▁kalma	-11.6015
▁رحمہ	-11.6017
▁ghairat	-11.6019
▁گارڈ	-11.6024
▁160	-11.6027
▁doori	-11.6027
▁فرحان	-11.6028
▁نظریہ	-11.6029
▁عزا	-11.6037
▁ریت	-11.6038
▁yaas	-11.6041
▁فیل	-11.6043
▁کتابوں	-11.6058
▁لاء	-11.6062
▁ہوگئیں	-11.6072
▁qata	-11.6074
بیت	-11.6089
▁tana	-11.6111
▁الہی	-11.6115
2019	-11.6116
▁پروگرامز	-11.612
▁anha	-11.6121
▁گود	-11.6123
▁zahiri	-11.6125
ٹیم	-11.6127
▁بڑھے	-11.6138
▁WA	-11.6161
▁تلف	-11.6169
▁سعود	-11.6174
▁چلیں	-11.6179
سٹاف	-11.6197
نگٹن	-11.6198
دسمبر	-11.6203
سیاسی	-11.621
▁چھپا	-11.6211
کٹر	-11.6215
▁pahar	-11.622
امید	-11.6227
▁بخار	-11.6231
▁tumahra	-11.6248
▁aadh	-11.625
▁umm	-11.6252
▁اجزا	-11.6252
▁design	-11.6257
▁Jabeen	-11.6257
▁Mawra	-11.6257
▁Talaq	-11.6257
▁York	-11.6257
▁angraiz	-11.6257
▁bandobast	-11.6257
▁berhate	-11.6257
▁chhupi	-11.6257
▁chouka	-11.6257
▁chupaney	-11.6257
▁claim	-11.6257
▁fasaad	-11.6257
▁gazleen	-11.6257
▁hammeed	-11.6257
▁intibah	-11.6257
▁juz	-11.6257
▁khaakhsaar	-11.6257
▁khudmukhtaari	-11.6257
▁mukhalfat	-11.6257
▁mutabadil	-11.6257
▁pattoun	-11.6257
▁prablm	-11.6257
▁qateel	-11.6257
▁sprim	-11.6257
▁sukut	-11.6257
▁ungelian	-11.6257
▁zakheera	-11.6257
▁اکٹھا	-11.6257
▁بہاولپور	-11.6257
▁تدفین	-11.6257
▁تزئین	-11.6257
▁تسلسل	-11.6257
▁خسارے	-11.6257
▁داؤد	-11.6257
▁ریفرنڈم	-11.6257
▁سرگودھا	-11.6257
▁سلطنت	-11.6257
▁سکواڈ	-11.6257
▁صاحبزادی	-11.6257
▁مشروط	-11.6257
▁میوزیم	-11.6257
▁پروفیشنل	-11.6257
▁ڈائریکٹوریٹ	-11.6257
▁ڈپارٹمنٹ	-11.6257
▁یرغمال	-11.6257
▁catch	-11.6257
▁masharti	-11.6257
▁pamaal	-11.6257
▁rigg	-11.6257
▁sindhi	-11.6257
▁speed	-11.6257
▁اوباما	-11.6257
▁dagha	-11.6257
▁golf	-11.6257
▁hanstaa	-11.6257
▁mangta	-11.6257
▁tukre	-11.6257
▁غصہ	-11.6257
▁behria	-11.6257
▁najane	-11.6257
▁راضی	-11.6257
▁مارٹم	-11.6257
▁parindon	-11.6257
▁بنگلا	-11.6257
▁عادت	-11.6257
▁aanhon	-11.6257
▁money	-11.6257
▁لمبی	-11.6257
▁sobai	-11.6257
▁نایاب	-11.6257
▁پرعزم	-11.6257
▁غالب	-11.6257
▁darny	-11.6257
▁ہمایوں	-11.6257
▁گمراہ	-11.6257
▁aziat	-11.6257
▁maatam	-11.6258
▁پرجوش	-11.6258
▁اسپرے	-11.6258
▁کوویڈ	-11.6258
▁نمونہ	-11.6258
▁takhta	-11.6258
▁نصر	-11.6258
▁عصر	-11.6259
▁نائیک	-11.6259
▁asmaa	-11.6259
▁ہیومن	-11.6259
▁بروئے	-11.6259
▁meem	-11.6259
▁الرحمٰن	-11.626
▁عمیر	-11.626
▁مسمار	-11.6261
▁کچل	-11.6261
▁تلخ	-11.6261
▁پودے	-11.6262
▁چودہ	-11.6262
▁khoosh	-11.6262
istan	-11.6262
▁ghul	-11.6262
▁ڈاون	-11.6262
▁چیخ	-11.6263
▁bhagnay	-11.6264
▁rhi	-11.6264
▁nazir	-11.6264
▁visa	-11.6264
▁فرخ	-11.6265
▁intizamia	-11.6265
▁مہدی	-11.6266
▁BT	-11.6266
▁articles	-11.6266
▁فلیٹ	-11.6267
▁rakhiye	-11.6267
▁hotel	-11.6268
▁1980	-11.6269
▁rind	-11.627
▁chalanay	-11.627
▁ویزے	-11.627
▁jagha	-11.6273
▁jalanay	-11.6273
▁fida	-11.6275
▁تیزاب	-11.6275
▁ہلاکتیں	-11.6278
▁بدلنے	-11.6278
▁میگ	-11.6278
▁اسٹیک	-11.628
▁ٹنل	-11.628
▁فلور	-11.6282
▁khaar	-11.6284
▁fani	-11.6286
▁saath	-11.6287
▁چم	-11.6287
▁قرضہ	-11.6288
aim	-11.6294
:30	-11.6298
2016	-11.6298
▁آڑ	-11.6299
▁سنیل	-11.6301
▁subh	-11.6305
▁08	-11.6308
▁آجائے	-11.6312
▁logun	-11.6313
▁rozana	-11.6314
▁ماہرہ	-11.6315
▁Israeli	-11.6326
▁مانگی	-11.6328
▁واللہ	-11.633
▁bache	-11.6333
▁dana	-11.6334
▁بچن	-11.6336
حسین	-11.6338
▁esa	-11.6339
▁treat	-11.6339
▁87	-11.6344
▁نکلیں	-11.6346
▁any	-11.6354
▁ہونگی	-11.6357
▁soya	-11.6359
▁fori	-11.6361
▁azan	-11.6365
▁ہندی	-11.638
▁معطلی	-11.6398
▁ہد	-11.6399
▁He	-11.6414
▁aji	-11.6418
▁dhang	-11.6419
▁fee	-11.6423
▁maali	-11.6429
▁علموں	-11.6434
cc	-11.6444
85	-11.6457
▁تھیٹر	-11.6459
▁Bu	-11.6466
▁سجا	-11.6471
2021	-11.6471
جسٹس	-11.6472
▁hansa	-11.6472
▁گرینڈ	-11.6476
▁ٹرینڈ	-11.6482
▁اجرا	-11.6486
▁انہو	-11.6486
▁لک	-11.6499
▁paan	-11.6523
tra	-11.6528
جاوید	-11.6537
چیئرمین	-11.6537
کورونا	-11.6537
زخمی	-11.6537
وزیراعلیٰ	-11.6538
جولائی	-11.6539
دیگر	-11.6542
فروری	-11.6542
گھر	-11.6547
▁گھٹ	-11.655
▁پاشا	-11.655
▁شیری	-11.6551
جواب	-11.6554
▁nawaz	-11.6563
▁انصار	-11.6564
▁ہاشم	-11.6565
▁خورد	-11.6577
▁article	-11.6581
▁khawahish	-11.6583
▁blagr	-11.6587
▁shop	-11.6589
▁press	-11.659
▁Afghan	-11.659
▁About	-11.6591
▁Gohr	-11.6591
▁Khyber	-11.6591
▁Simab	-11.6591
▁World	-11.6591
▁Yemen	-11.6591
▁chkwal	-11.6591
▁currency	-11.6591
▁editor	-11.6591
▁fazil	-11.6591
▁glass	-11.6591
▁karporasion	-11.6591
▁majnu	-11.6591
▁makhoz	-11.6591
▁mehrbaan	-11.6591
▁mohtaaj	-11.6591
▁mushaqqat	-11.6591
▁napasand	-11.6591
▁online	-11.6591
▁pahoron	-11.6591
▁pouchon	-11.6591
▁qaafla	-11.6591
▁qaryin	-11.6591
▁qassar	-11.6591
▁scienci	-11.6591
▁social	-11.6591
▁taawun	-11.6591
▁آویزاں	-11.6591
▁ابوظہبی	-11.6591
▁اثاثہ	-11.6591
▁استنبول	-11.6591
▁انحصار	-11.6591
▁بارسلونا	-11.6591
▁بدستور	-11.6591
▁تخمینہ	-11.6591
▁حفظ	-11.6591
▁خاوند	-11.6591
▁مترادف	-11.6591
▁مقصود	-11.6591
▁میگزین	-11.6591
▁نوشہرہ	-11.6591
▁کانسٹیبل	-11.6591
انٹرٹینمنٹ	-11.6591
▁lasani	-11.6591
▁musanif	-11.6591
▁nazriaat	-11.6591
▁shanaas	-11.6591
▁skty	-11.6591
▁آثار	-11.6591
▁اینجلس	-11.6591
▁ایندھن	-11.6591
▁غصے	-11.6591
▁ٹائپ	-11.6591
▁مہینہ	-11.6591
▁پیچیدہ	-11.6591
▁marsia	-11.6591
▁shabnam	-11.6591
▁القدس	-11.6591
▁kirnain	-11.6591
▁raakh	-11.6591
▁آڈٹ	-11.6591
▁سکرین	-11.6591
▁isiliye	-11.6591
▁ادرک	-11.6591
▁رنبیر	-11.6591
▁aashiqii	-11.6591
▁nadaan	-11.6591
▁روہت	-11.6591
▁آمنے	-11.6591
▁kaseer	-11.6591
▁کوہاٹ	-11.6591
▁سپین	-11.6591
▁پمپ	-11.6591
▁parrhi	-11.6591
▁کاوشوں	-11.6591
▁mousamoo	-11.6591
▁aafat	-11.6591
▁jazbun	-11.6592
▁girift	-11.6592
▁samaji	-11.6592
▁سہارا	-11.6592
▁میسج	-11.6592
▁کرسکے	-11.6592
▁aslam	-11.6592
▁flow	-11.6593
▁گائیڈ	-11.6593
▁پیسوں	-11.6593
▁aangan	-11.6593
▁driver	-11.6593
▁Asee	-11.6594
▁شفافیت	-11.6594
▁sapnay	-11.6594
▁ممنوعہ	-11.6595
▁1993	-11.6595
▁shararat	-11.6595
▁kaeh	-11.6596
▁madaar	-11.6596
▁برپا	-11.6596
▁وارث	-11.6597
▁کاکڑ	-11.6597
▁پتلی	-11.6597
▁banaao	-11.6598
▁خواہاں	-11.6598
▁feel	-11.6599
▁peeri	-11.66
▁gaahay	-11.6601
▁پاؤں	-11.6601
▁matlooba	-11.6602
▁جائیگا۔	-11.6603
▁Zohrah	-11.6604
▁marhalay	-11.6605
▁sheeshay	-11.6605
▁also	-11.6605
▁لکھنے	-11.6606
▁disk	-11.6606
▁path	-11.6606
▁hoten	-11.6607
▁raza	-11.6608
▁nashay	-11.6608
▁سزائے	-11.6608
▁baham	-11.6609
▁لیسٹر	-11.6612
▁akhbarat	-11.6612
▁Main	-11.6613
▁khoye	-11.6614
▁گرانے	-11.6615
▁lehar	-11.6619
▁لوٹنے	-11.662
▁daalnay	-11.6621
▁rani	-11.6621
▁بازیابی	-11.6624
▁qissay	-11.6625
▁darjaat	-11.6625
▁برداری	-11.6628
▁بستر	-11.6629
▁zulmat	-11.6632
▁muntaqili	-11.6637
▁پہنے	-11.664
▁wey	-11.6641
DA	-11.6642
asar	-11.6643
یہاں	-11.6645
▁sarr	-11.6645
▁کیاجائے	-11.6647
▁sunanay	-11.6648
▁سکھوں	-11.6658
▁daaron	-11.6658
▁بھگو	-11.6659
▁mura	-11.666
▁ہلکا	-11.666
▁بوری	-11.6661
▁wati	-11.6662
▁کرادی	-11.6665
78	-11.6667
▁جاننا	-11.6669
انہیں	-11.6677
▁banane	-11.668
▁نادر	-11.668
▁khaasa	-11.6688
▁jhooti	-11.6691
▁اینکر	-11.6691
▁کمائی	-11.6693
▁افسروں	-11.6707
▁لگادی	-11.6713
▁یوکرینی	-11.6715
▁قدمی	-11.6718
▁پکڑے	-11.6718
▁Ky	-11.672
▁منال	-11.6722
▁ھو	-11.6723
دیکھ	-11.6724
▁مانا	-11.6729
able	-11.673
▁barham	-11.6741
▁musalmano	-11.6761
▁khao	-11.6768
▁may	-11.6779
▁phel	-11.68
▁پھٹ	-11.6821
▁fund	-11.683
▁ڈیڈ	-11.684
▁ہائ	-11.684
▁حب	-11.6852
وگرا	-11.6868
ملزم	-11.6881
تحریک	-11.6882
▁Hon	-11.6882
ِیْ	-11.6883
بجے	-11.6892
میرے	-11.6906
▁عبور	-11.6909
کچھ	-11.6913
▁aaye	-11.6922
▁farishta	-11.6926
▁dobara	-11.6927
▁زید	-11.6927
▁hazar	-11.6932
▁rawi	-11.6933
ایڈمنسٹریٹر	-11.6935
▁KARAIN	-11.6935
▁Muhammad	-11.6935
▁Naseem	-11.6935
▁Recipe	-11.6935
▁Sports	-11.6935
▁Wahab	-11.6935
▁ashqo	-11.6935
▁bakhoobi	-11.6935
▁bewaqoof	-11.6935
▁bhabhi	-11.6935
▁chamcha	-11.6935
▁chirya	-11.6935
▁cooking	-11.6935
▁ghuroor	-11.6935
▁hassas	-11.6935
▁inqilab	-11.6935
▁kaileeay	-11.6935
▁makhlooq	-11.6935
▁mehtaab	-11.6935
▁muhtaram	-11.6935
▁muratab	-11.6935
▁mustand	-11.6935
▁scene	-11.6935
▁tarjeeh	-11.6935
▁tashnagi	-11.6935
▁waqoof	-11.6935
▁استغاثہ	-11.6935
▁اعضا	-11.6935
▁الرشید	-11.6935
▁انڈونیشیا	-11.6935
▁ایمبولینس	-11.6935
▁برآں	-11.6935
▁بغداد	-11.6935
▁تذکرہ	-11.6935
▁خسارہ	-11.6935
▁شرمناک	-11.6935
▁عیسائی	-11.6935
▁قاہرہ	-11.6935
▁قصبے	-11.6935
▁ماتحت	-11.6935
▁معاوضہ	-11.6935
▁ملاحظہ	-11.6935
▁منقطع	-11.6935
▁پاکپتن	-11.6935
▁کھوکھر	-11.6935
▁گمشدگی	-11.6935
▁afzl	-11.6935
▁binkari	-11.6935
▁chodan	-11.6935
▁short	-11.6935
▁خالص	-11.6935
▁دمشق	-11.6935
▁سکندر	-11.6935
▁ملحقہ	-11.6935
▁نعرہ	-11.6935
▁naseer	-11.6935
▁ذمے	-11.6935
▁لڑاکا	-11.6935
▁asraat	-11.6935
▁since	-11.6935
▁اسٹائل	-11.6935
▁نارمل	-11.6935
▁mosam	-11.6935
▁wasii	-11.6935
▁خصوصاً	-11.6935
▁سویڈن	-11.6935
▁hazf	-11.6935
▁easi	-11.6935
▁دیرینہ	-11.6936
▁صابر	-11.6936
▁sign	-11.6936
▁کیمیکل	-11.6936
▁donu	-11.6936
▁rule	-11.6936
▁humdam	-11.6936
▁muskurahat	-11.6936
▁جھک	-11.6936
▁زیارت	-11.6936
▁مہنگے	-11.6936
▁Islam	-11.6936
▁انفرادی	-11.6936
فکیشن	-11.6937
▁oont	-11.6937
▁zubanain	-11.6937
▁neez	-11.6937
▁چھیڑ	-11.6937
▁juram	-11.6937
▁palao	-11.6937
▁داماد	-11.6937
▁تخت	-11.6937
▁awaaz	-11.6937
▁مہوش	-11.6937
▁بھتہ	-11.6938
▁فتوی	-11.6938
▁مچھلی	-11.6938
▁moujza	-11.6938
▁محترمہ	-11.6939
▁wood	-11.6939
▁phas	-11.6939
▁waisi	-11.694
▁pohanchaya	-11.694
▁گشت	-11.694
▁parcham	-11.6941
▁who	-11.6941
▁khabardaar	-11.6941
▁tube	-11.6941
▁dilanay	-11.6942
▁دستور	-11.6942
▁فیروز	-11.6942
▁girty	-11.6943
▁رینج	-11.6943
▁گائوں	-11.6944
▁maraah	-11.6944
▁کیجئے	-11.6945
▁شرٹ	-11.6945
▁معمر	-11.6946
▁lun	-11.6946
▁کھیلیں	-11.6947
▁سادہ	-11.6947
▁فلک	-11.6947
▁For	-11.6949
▁Hawa	-11.695
▁نقد	-11.695
▁جانسن	-11.6952
▁ویمنز	-11.6953
▁معانی	-11.6953
▁ڈاک	-11.6954
▁badla	-11.6954
▁nuskhay	-11.6955
▁App	-11.6955
▁برہمی	-11.6957
▁آمر	-11.6957
▁bahami	-11.6958
▁کروانا	-11.696
ence	-11.696
▁hud	-11.6962
▁چیکنگ	-11.6963
▁جھوٹے	-11.6963
▁زنی	-11.6963
▁bachanay	-11.6964
▁gosha	-11.6969
▁بڑھانا	-11.6969
▁خلیجی	-11.6971
▁الاٹ	-11.6974
▁jinah	-11.6977
▁بارودی	-11.6978
assur	-11.6981
▁Tak	-11.6981
79	-11.6984
▁khra	-11.6987
▁بہادری	-11.6988
▁پیشگی	-11.6994
▁جگر	-11.6995
▁ذو	-11.6995
▁نمی	-11.6998
▁ناکہ	-11.6999
▁مانگا	-11.7
▁انقلابی	-11.7
▁مسلمین	-11.7002
▁beron	-11.7005
▁dawai	-11.7013
▁ندی	-11.7015
▁پرستی	-11.7018
▁لگانا	-11.7018
▁چوکوں	-11.7026
▁شے	-11.7029
▁girah	-11.7031
▁فضلا	-11.7032
▁جسٹن	-11.7034
▁گاہوں	-11.7037
▁سائنسی	-11.7041
▁تحریکِ	-11.7048
▁700	-11.7048
▁junoon	-11.7049
▁سائٹس	-11.7051
▁ٹیسٹنگ	-11.7074
▁چرا	-11.7075
پائی	-11.7079
▁جلن	-11.7088
Mar	-11.7093
▁hoty	-11.7096
▁مچھ	-11.7102
qb	-11.713
دَ	-11.7164
ڈیسک	-11.7182
قبل	-11.7186
▁میکس	-11.7189
▁لب	-11.7194
▁گڈ	-11.7196
▁ڈوم	-11.7223
▁بولٹ	-11.7232
▁82	-11.7232
خواتین	-11.7239
2017	-11.7243
77	-11.7248
▁راؤنڈ	-11.7257
▁paband	-11.7258
▁بلدیات	-11.7266
▁چال	-11.7276
▁مطلوب	-11.7281
aanso	-11.7282
▁daawa	-11.7283
▁ایتھلیٹ	-11.7293
▁Comments	-11.7293
▁Group	-11.7293
▁Misbah	-11.7293
▁Shrof	-11.7293
▁Zimbabwe	-11.7293
▁barbadi	-11.7293
▁beeswin	-11.7293
▁cheekh	-11.7293
▁chuttiyan	-11.7293
▁deikhein	-11.7293
▁farmit	-11.7293
▁hashrat	-11.7293
▁idaara	-11.7293
▁irtiqa	-11.7293
▁largest	-11.7293
▁madeeney	-11.7293
▁muntazim	-11.7293
▁naghmay	-11.7293
▁sakuu	-11.7293
▁secretary	-11.7293
▁sulooq	-11.7293
▁آئرلینڈ	-11.7293
▁باآسانی	-11.7293
▁تحائف	-11.7293
▁تعبیر	-11.7293
▁دروازہ	-11.7293
▁روئٹرز	-11.7293
▁ریختہ	-11.7293
▁زیرصدارت	-11.7293
▁صحابہ	-11.7293
▁عصمت	-11.7293
▁پسماندہ	-11.7293
▁پنچایت	-11.7293
▁چوپڑا	-11.7293
▁ڈیولپمنٹ	-11.7293
▁1949	-11.7293
▁dheron	-11.7293
▁doobe	-11.7293
▁mohlat	-11.7293
▁national	-11.7293
▁nigari	-11.7293
▁pahly	-11.7293
▁zandan	-11.7293
▁محکمے	-11.7293
▁alnbi	-11.7293
▁baaes	-11.7293
▁chaap	-11.7293
▁health	-11.7293
▁bhatak	-11.7293
▁انفراسٹرکچر	-11.7293
▁زمرے	-11.7293
▁مدھیہ	-11.7293
▁hamary	-11.7293
▁slim	-11.7293
▁zakr	-11.7293
▁اکیلے	-11.7293
▁قسط	-11.7293
▁sawaal	-11.7293
▁zabar	-11.7293
▁سمیع	-11.7293
▁دھاوا	-11.7293
▁کینیڈین	-11.7293
▁ورزش	-11.7293
▁hoova	-11.7293
▁sawari	-11.7293
▁sobon	-11.7293
▁point	-11.7293
▁step	-11.7293
▁چارلس	-11.7293
▁بشریٰ	-11.7293
▁murda	-11.7293
▁کائنات	-11.7293
▁سیمینار	-11.7293
▁طالبعلم	-11.7293
▁ایئرلائن	-11.7293
▁needs	-11.7293
▁shaair	-11.7294
▁دھکیل	-11.7294
▁bring	-11.7294
▁tanaza	-11.7294
▁لمبائی	-11.7294
▁گندگی	-11.7294
▁اُنہیں	-11.7295
▁Shafi	-11.7295
▁piyasa	-11.7295
▁JA	-11.7296
▁اشیائے	-11.7296
▁دکاندار	-11.7296
▁جوزف	-11.7296
▁warzi	-11.7296
▁مجاہدین	-11.7296
▁guru	-11.7297
▁چادر	-11.7297
▁ghoray	-11.7297
▁میرپور	-11.7298
▁khatray	-11.7299
▁برقی	-11.7299
▁شرکا	-11.7299
▁jub	-11.7299
▁gadhay	-11.73
▁chhar	-11.73
▁وینٹی	-11.73
▁jalsa	-11.73
▁سبحان	-11.73
▁haamil	-11.73
▁اجتماعات	-11.73
▁بشارت	-11.7301
▁مشاہدہ	-11.7301
▁food	-11.7301
▁زوال	-11.7302
▁unglio	-11.7302
▁انعامات	-11.7303
▁PM	-11.7303
▁کھیر	-11.7303
رواں	-11.7304
▁Safa	-11.7304
▁uthte	-11.7306
▁صدور	-11.7306
▁waly	-11.7306
▁گنتی	-11.731
▁یوگی	-11.731
▁چمن	-11.7311
▁Hm	-11.7311
▁اہلیت	-11.7312
▁gosh	-11.7312
▁bhage	-11.7312
▁درآمدات	-11.7313
▁سمر	-11.7313
▁farmata	-11.7314
▁لگتے	-11.7314
adeer	-11.7314
▁shumari	-11.7315
▁یومیہ	-11.7315
▁ٹاور	-11.7315
▁baabo	-11.7316
▁چلتے	-11.7316
▁hansnay	-11.7317
▁چلاتے	-11.7318
▁muflisi	-11.7318
▁گارڈن	-11.7318
▁آپریٹ	-11.7319
▁halka	-11.732
▁اٹھانا	-11.7322
▁پیغامات	-11.7325
▁لوکل	-11.7327
▁goli	-11.7327
▁لڑکیاں	-11.7327
▁زکر	-11.7329
▁ads	-11.7329
▁bhaal	-11.7338
▁خوری	-11.7338
▁قراردادوں	-11.7342
▁filmon	-11.7343
▁گروہوں	-11.7344
▁بتائے	-11.7347
▁گلیوں	-11.7349
▁taqub	-11.7349
▁بنائیں۔	-11.7349
▁بیوہ	-11.735
▁تعلیمات	-11.7351
▁doum	-11.7353
▁بدلہ	-11.7356
▁rahabar	-11.7357
▁رکھیں۔	-11.7358
▁تصویریں	-11.7358
▁جذباتی	-11.7365
▁dekhni	-11.7366
▁zarf	-11.737
▁بادل	-11.737
▁قسمتی	-11.7372
▁nikalay	-11.7376
مرد	-11.7379
▁jaza	-11.7384
▁bazoo	-11.7395
▁کالجز	-11.7404
ctor	-11.7404
▁pao	-11.7407
▁dd	-11.7409
▁saro	-11.7415
▁ملا۔	-11.7417
▁chaloon	-11.7418
▁baraat	-11.742
میٹ	-11.7434
▁Jis	-11.7448
▁khad	-11.7484
ولوجی	-11.7486
▁جانیے	-11.7486
▁naey	-11.7487
▁نوشی	-11.7488
▁ہوگئیں۔	-11.7511
▁pura	-11.7518
uran	-11.7543
▁جڑی	-11.758
َمَ	-11.7586
▁شہد	-11.7593
خارجہ	-11.7603
اپوزیشن	-11.7609
کیلئے	-11.7609
شہباز	-11.761
تعلیم	-11.761
آخر	-11.7612
▁کٹھ	-11.7612
دونوں	-11.7613
اداکارہ	-11.7613
حکام	-11.7613
kn	-11.7629
▁ینگ	-11.7633
▁گرے	-11.7635
صرف	-11.7636
▁سائنسدان	-11.7645
▁1997	-11.7654
▁تسلی	-11.7655
▁sifar	-11.7657
▁مدعی	-11.7659
▁مزاح	-11.7659
▁cup	-11.766
▁mousam	-11.7662
▁makhi	-11.7662
▁احکام	-11.7662
jehad	-11.7663
▁GAYE	-11.7663
▁HUM	-11.7663
▁Moueen	-11.7663
▁Shifa	-11.7663
▁baahum	-11.7663
▁briloy	-11.7663
▁burhapa	-11.7663
▁coach	-11.7663
▁ganwaa	-11.7663
▁ikhtilafat	-11.7663
▁ilzam	-11.7663
▁imtiaz	-11.7663
▁iqdaam	-11.7663
▁iqraar	-11.7663
▁julne	-11.7663
▁jumaraat	-11.7663
▁khincha	-11.7663
▁khoobsurat	-11.7663
▁mafadaat	-11.7663
▁maktab	-11.7663
▁maqtal	-11.7663
▁masafat	-11.7663
▁mimbraan	-11.7663
▁mohawra	-11.7663
▁mqfl	-11.7663
▁mubarikah	-11.7663
▁musawir	-11.7663
▁nisaab	-11.7663
▁nusrat	-11.7663
▁peshkash	-11.7663
▁reyaston	-11.7663
▁sajjad	-11.7663
▁suraagh	-11.7663
▁tahleel	-11.7663
▁tajarbaat	-11.7663
▁takhallus	-11.7663
▁tayyiba	-11.7663
▁topics	-11.7663
▁wizarat	-11.7663
▁zibah	-11.7663
▁انتشار	-11.7663
▁بائیکاٹ	-11.7663
▁باصلاحیت	-11.7663
▁بذریعہ	-11.7663
▁بزنجو	-11.7663
▁ذائقہ	-11.7663
▁روہنگیا	-11.7663
▁مطمئن	-11.7663
▁پراسیکیوٹر	-11.7663
▁یکطرفہ	-11.7663
▁Fahd	-11.7663
▁Mashal	-11.7663
▁andesha	-11.7663
▁anjaan	-11.7663
▁hukam	-11.7663
▁jahalat	-11.7663
▁mangni	-11.7663
▁pakarney	-11.7663
▁pehnay	-11.7663
▁pukaar	-11.7663
▁shikan	-11.7663
▁سراہتے	-11.7663
▁نگہداشت	-11.7663
▁یکساں	-11.7663
▁fankar	-11.7663
▁جھلک	-11.7663
▁مکرمہ	-11.7663
▁واوڈا	-11.7663
▁پائپ	-11.7663
▁ہجرت	-11.7663
▁zrur	-11.7663
▁اسٹوریج	-11.7663
▁اوورسیز	-11.7663
▁جنھیں	-11.7663
▁حماد	-11.7663
▁aashkaar	-11.7663
▁ghaaye	-11.7663
▁makhan	-11.7663
▁انوشکا	-11.7663
▁stage	-11.7663
▁لڑکوں	-11.7663
▁falan	-11.7663
▁murr	-11.7663
▁mushtari	-11.7663
▁نشتر	-11.7663
▁گاہکوں	-11.7663
▁بیرسٹر	-11.7663
▁cheda	-11.7663
▁utre	-11.7663
▁سگنل	-11.7663
▁سینیئر	-11.7663
▁بھڑک	-11.7663
▁parwaaz	-11.7663
▁منسوب	-11.7663
▁نعت	-11.7663
▁فنانس	-11.7663
▁lagany	-11.7663
▁nagri	-11.7663
▁hizab	-11.7663
▁عزائم	-11.7663
▁جھول	-11.7663
▁نکاسی	-11.7663
▁رخصت	-11.7663
▁numaindagi	-11.7663
▁بااثر	-11.7663
▁مجیب	-11.7664
▁ہیروئن	-11.7664
▁foj	-11.7664
▁seerat	-11.7664
▁پدم	-11.7664
▁noot	-11.7664
▁ٹریلر	-11.7664
▁ڈیموکریٹک	-11.7664
▁تنہا	-11.7665
▁موصل	-11.7665
▁satrah	-11.7665
▁which	-11.7665
▁Sarif	-11.7665
▁تمہیں	-11.7665
▁سنیچر	-11.7665
▁پھوٹ	-11.7665
▁choari	-11.7665
▁jbhi	-11.7666
▁اجمل	-11.7666
▁Rafi	-11.7667
▁بادام	-11.7667
▁عادی	-11.7668
▁ساٹھ	-11.7669
▁shahkaar	-11.7669
▁akkaasi	-11.7669
▁tayyaray	-11.7669
▁افواہیں	-11.767
▁سمتھ	-11.767
▁خوبانی	-11.767
▁ریجن	-11.7671
▁ترجیحات	-11.7672
▁daaway	-11.7673
▁گلشن	-11.7673
▁wish	-11.7673
▁برلن	-11.7673
▁sharar	-11.7674
▁ودیگر	-11.7676
▁دوحہ	-11.7676
▁wasti	-11.7677
▁khilona	-11.7677
▁raey	-11.7678
▁thakan	-11.7679
▁چاہیئے۔	-11.7679
▁اوپنر	-11.7679
▁فروشوں	-11.7679
▁سستے	-11.7679
▁نشانات	-11.768
▁bandish	-11.768
▁ڈیوائسز	-11.768
▁مدنی	-11.768
▁aanch	-11.7681
▁thanday	-11.7682
▁kamila	-11.7682
▁aham	-11.7682
▁راجیہ	-11.7682
▁bahtay	-11.7682
▁رائٹس	-11.7682
▁خاور	-11.7685
▁haadsay	-11.7686
▁قرضے	-11.7686
▁سرپرستی	-11.7687
▁حقانی	-11.7687
▁sehri	-11.7688
▁پاؤنڈ	-11.769
▁مقررین	-11.7692
▁sadaye	-11.7692
▁بیٹھنے	-11.7694
▁جدت	-11.7695
▁بالائی	-11.7696
▁سیاستدانوں	-11.7697
▁samaat	-11.7698
میل	-11.7699
▁تیرہ	-11.77
▁بڑھتا	-11.7701
▁konse	-11.7703
▁krtay	-11.7704
▁آوازیں	-11.7705
▁شاہراہوں	-11.7707
▁آگیا۔	-11.7707
▁pehchana	-11.771
▁basta	-11.7715
▁aatish	-11.7715
▁لیول	-11.7716
▁روکنا	-11.7721
▁bahat	-11.7743
▁wata	-11.7743
▁rata	-11.7744
▁گزرے	-11.7747
▁qurban	-11.7747
▁اوول	-11.7748
▁لینڈنگ	-11.7748
▁ریکارڈنگ	-11.775
▁امپائرز	-11.775
▁trah	-11.7753
▁کھولے	-11.7755
▁Karna	-11.7756
▁laiy	-11.776
▁آئیں۔	-11.7766
▁کہناہے	-11.7768
▁فرش	-11.7769
▁fir	-11.777
▁gaiye	-11.7772
GB	-11.7776
▁red	-11.779
▁امرا	-11.7791
▁huay	-11.7792
▁00	-11.7806
▁اردن	-11.7832
مبو	-11.7842
▁nu	-11.7855
▁لیپ	-11.7862
قدرت	-11.7918
۔انہوںنے	-11.7965
▁keep	-11.7987
اگست	-11.7994
numa	-11.7994
پہلے	-11.7994
سرکاری	-11.7995
خود	-11.8002
ایران	-11.8003
▁برسات	-11.8006
دوران	-11.8014
▁insan	-11.8023
عرب	-11.8024
▁gustaakh	-11.803
رکنی	-11.8036
▁pemana	-11.8038
▁kharcha	-11.804
▁comp	-11.8043
▁Ahmad	-11.8048
▁Business	-11.8048
▁Mazhar	-11.8048
▁Mosoof	-11.8048
▁RAY	-11.8048
▁bichhre	-11.8048
▁bilashuba	-11.8048
▁boycott	-11.8048
▁catering	-11.8048
▁eqdaar	-11.8048
▁ghaflat	-11.8048
▁government	-11.8048
▁independent	-11.8048
▁jehlum	-11.8048
▁league	-11.8048
▁maqboliat	-11.8048
▁mashooq	-11.8048
▁mazkoor	-11.8048
▁mehngi	-11.8048
▁mjmoae	-11.8048
▁moahida	-11.8048
▁munhasir	-11.8048
▁mushriq	-11.8048
▁mushtaq	-11.8048
▁muzakar	-11.8048
▁naaqis	-11.8048
▁paicheeda	-11.8048
▁paighambar	-11.8048
▁phurti	-11.8048
▁qeht	-11.8048
▁rehaishi	-11.8048
▁rudaad	-11.8048
▁shafeeq	-11.8048
▁shujaiat	-11.8048
▁tanazur	-11.8048
▁waqeye	-11.8048
▁اثاثوں	-11.8048
▁اثاثے	-11.8048
▁استفادہ	-11.8048
▁اسلحے	-11.8048
▁اشفاق	-11.8048
▁الفطر	-11.8048
▁بحیثیت	-11.8048
▁بدسلوکی	-11.8048
▁تقاریر	-11.8048
▁تقویت	-11.8048
▁خلیفہ	-11.8048
▁خوفزدہ	-11.8048
▁ذہانت	-11.8048
▁زرمبادلہ	-11.8048
▁شارجہ	-11.8048
▁صاحبزادے	-11.8048
▁ظہور	-11.8048
▁ظہیر	-11.8048
▁عظمت	-11.8048
▁منصفانہ	-11.8048
▁ورچوئل	-11.8048
▁پختہ	-11.8048
▁یوکرائن	-11.8048
▁Shariat	-11.8048
▁fox	-11.8048
▁shanasa	-11.8048
▁vsim	-11.8048
▁احمر	-11.8048
▁تماشائی	-11.8048
▁شرپسند	-11.8048
▁ملائیشیا	-11.8048
▁adateen	-11.8048
▁pust	-11.8048
▁ایمانداری	-11.8048
▁تیونس	-11.8048
▁مفتاح	-11.8048
▁khawand	-11.8048
▁takraar	-11.8048
▁Ayaz	-11.8048
▁khalayi	-11.8048
▁merg	-11.8048
▁nobat	-11.8048
▁sifaat	-11.8048
▁عماد	-11.8048
▁فہیم	-11.8048
▁feal	-11.8048
▁gandhi	-11.8048
▁shyer	-11.8048
▁جتنے	-11.8048
▁Aap	-11.8048
▁کنٹریکٹ	-11.8048
▁taied	-11.8048
▁آرتھر	-11.8048
▁سفاک	-11.8048
▁رکعت	-11.8048
▁مسرت	-11.8048
▁hidayat	-11.8048
▁intizami	-11.8048
▁gadda	-11.8048
▁امتناع	-11.8048
▁فہد	-11.8048
▁karkun	-11.8048
▁ناخن	-11.8048
▁ہائیڈرو	-11.8048
▁رئیل	-11.8048
▁madaris	-11.8048
▁sifarish	-11.8048
▁پٹھوں	-11.8048
▁esaion	-11.8048
▁khadim	-11.8048
▁برکت	-11.8048
▁know	-11.8048
▁ird	-11.8049
▁کرنیوالے	-11.8049
▁کوریج	-11.8049
▁town	-11.8049
▁اسٹینڈ	-11.8049
▁اسناد	-11.8049
▁ایکسائز	-11.8049
▁korl	-11.8049
▁dhun	-11.8049
▁dhoom	-11.8049
▁بینظیر	-11.805
▁کزن	-11.805
▁کیمرہ	-11.805
▁awail	-11.805
▁bhola	-11.8051
▁شعر	-11.8051
▁مزاحیہ	-11.8051
▁khasara	-11.8051
▁ٹھاکرے	-11.8051
▁mazahab	-11.8051
▁maartay	-11.8051
▁mint	-11.8052
▁singh	-11.8052
▁ashya	-11.8052
▁taaqat	-11.8052
▁روپیہ	-11.8053
▁دسویں	-11.8053
▁بٹھا	-11.8054
▁آندھی	-11.8054
▁قلعہ	-11.8054
▁مریخ	-11.8054
▁marham	-11.8055
▁2,8	-11.8055
▁saudia	-11.8055
▁brt	-11.8055
ness	-11.8056
▁action	-11.8056
▁وافر	-11.8056
▁کاشف	-11.8056
▁چھٹیاں	-11.8056
▁1997.	-11.8057
▁dukhoon	-11.8057
▁phelanay	-11.8058
▁آنکھیں	-11.8058
▁nayazi	-11.8058
▁ایڈوائزری	-11.8059
ہَا	-11.8059
▁chashmay	-11.8061
▁users	-11.8061
▁کاٹنے	-11.8062
▁پھینکنے	-11.8062
▁hansna	-11.8062
▁daarhi	-11.8062
▁بدلتے	-11.8063
▁کہانیاں	-11.8063
▁skta	-11.8064
▁ڈٹ	-11.8066
▁dadi	-11.8066
▁paishgi	-11.8067
▁گلاب	-11.8067
▁االلہ	-11.8067
▁mushahida	-11.8068
▁پڑھنا	-11.8068
▁Dana	-11.8068
▁گرلز	-11.8069
▁قابلیت	-11.8072
▁pasti	-11.8073
▁سراہا۔	-11.8074
▁پڑتی	-11.8075
▁چلایا	-11.8076
▁badam	-11.8076
▁حسی	-11.8076
▁زمانے	-11.8076
▁dsa	-11.808
▁چلتی	-11.808
▁سڑکیں	-11.808
▁یوپی	-11.8083
▁شہریار	-11.8084
▁aanar	-11.8085
▁pardes	-11.8087
▁کرگئے	-11.809
▁جلیل	-11.8093
▁چھٹیوں	-11.8099
▁girnay	-11.8101
▁ayta	-11.8103
▁آرڈرز	-11.8103
▁تھانوں	-11.8104
▁bharam	-11.8105
▁taaq	-11.8106
▁لگے۔	-11.8109
▁گیٹس	-11.8109
▁توشہ	-11.8109
▁jhoota	-11.811
▁گناہوں	-11.8111
▁bri	-11.8111
haal	-11.8125
▁کھولا	-11.8131
▁غلطیوں	-11.8135
▁bharta	-11.8142
آئس	-11.8147
▁بڑ	-11.8159
▁فلٹر	-11.8164
▁halat	-11.8172
▁چڑھا	-11.8172
▁گرج	-11.8175
▁تاجران	-11.8178
نظر	-11.8188
▁فرید	-11.8193
▁مونس	-11.8209
AL	-11.8209
▁زین	-11.8211
▁پڑیں	-11.8212
var	-11.8239
▁Le	-11.8253
▁کروائیں	-11.8279
▁تص	-11.8289
▁قراردیا	-11.8341
▁nishan	-11.8365
تفصیل	-11.8393
ڈپٹی	-11.8394
waqt	-11.8394
حدیث	-11.8394
صالح	-11.8397
جلد	-11.8405
▁دادا	-11.8421
▁بریک	-11.843
▁aftaar	-11.843
▁jazb	-11.8431
▁240	-11.8434
▁جائیگی	-11.8435
▁kutta	-11.8438
▁shirk	-11.8442
jaizair	-11.8448
▁Ashfaq	-11.8448
▁August	-11.8448
▁BAAT	-11.8448
▁Hamza	-11.8448
▁Ibrat	-11.8448
▁Laden	-11.8448
▁Nadim	-11.8448
▁Obama	-11.8448
▁Saqafat	-11.8448
▁Seddiq	-11.8448
▁Sulaiman	-11.8448
▁aabaroo	-11.8448
▁abubaker	-11.8448
▁aitrazaat	-11.8448
▁aqaed	-11.8448
▁bandooq	-11.8448
▁history	-11.8448
▁japaani	-11.8448
▁khasusiyat	-11.8448
▁maujood	-11.8448
▁mulawis	-11.8448
▁musharraf	-11.8448
▁mustahiq	-11.8448
▁namodaar	-11.8448
▁nigrani	-11.8448
▁nuzool	-11.8448
▁pehelvaan	-11.8448
▁posheeda	-11.8448
▁position	-11.8448
▁pyase	-11.8448
▁rkhiye	-11.8448
▁sahreek	-11.8448
▁sjday	-11.8448
▁tahajji	-11.8448
▁tahhaamul	-11.8448
▁umomi	-11.8448
▁آندھرا	-11.8448
▁استثنیٰ	-11.8448
▁اعتزاز	-11.8448
▁افادیت	-11.8448
▁امیتابھ	-11.8448
▁اکیسویں	-11.8448
▁بربریت	-11.8448
▁راحیل	-11.8448
▁راغب	-11.8448
▁سپاہی	-11.8448
▁عیدالفطر	-11.8448
▁قبیلے	-11.8448
▁محاصرہ	-11.8448
▁مذاہب	-11.8448
▁مفاہمت	-11.8448
▁ٹائیگر	-11.8448
▁ٹیکسٹائل	-11.8448
▁چیئرپرسن	-11.8448
▁کثرت	-11.8448
▁کچہری	-11.8448
▁durustagi	-11.8448
▁maskan	-11.8448
▁reading	-11.8448
▁sawanah	-11.8448
▁zeenat	-11.8448
▁برصغیر	-11.8448
▁خوفناک	-11.8448
▁لائبریری	-11.8448
▁مبصر	-11.8448
▁ملاکنڈ	-11.8448
▁منتشر	-11.8448
▁پروڈکٹ	-11.8448
▁akeli	-11.8448
▁hassan	-11.8448
▁khelon	-11.8448
▁munsif	-11.8448
▁sadaarti	-11.8448
▁tukda	-11.8448
▁tuwaf	-11.8448
▁جنازے	-11.8448
▁خطوط	-11.8448
▁alqab	-11.8448
▁chaaye	-11.8448
▁husan	-11.8448
▁nafiz	-11.8448
▁بریگیڈ	-11.8448
▁dunyae	-11.8448
▁وحید	-11.8448
▁لیجنڈ	-11.8448
▁مینیجر	-11.8448
▁bachaaye	-11.8448
▁مضر	-11.8448
asida	-11.8448
▁asleha	-11.8448
▁gariyon	-11.8448
▁paich	-11.8448
▁اونچی	-11.8448
▁لگاتار	-11.8448
▁pakanay	-11.8448
▁شیطان	-11.8448
▁کُل	-11.8448
▁گذار	-11.8448
▁bidat	-11.8448
▁Khawab	-11.8448
▁dinner	-11.8448
▁beje	-11.8448
▁فقیر	-11.8448
▁قیاس	-11.8448
▁پرسکون	-11.8448
▁mister	-11.8448
▁شنکر	-11.8448
▁پیمرا	-11.8448
▁جہان	-11.8448
▁whee	-11.8448
▁منطق	-11.8448
▁کیپشن	-11.8448
▁جرنلسٹ	-11.8449
▁tosee	-11.8449
▁ریحان	-11.8449
letter	-11.8449
▁deedaa	-11.8449
▁rezah	-11.8449
▁khaiz	-11.845
▁آلودہ	-11.845
▁muskuratay	-11.845
▁city	-11.845
▁UB	-11.845
▁gram	-11.845
▁ajati	-11.845
▁Raft	-11.845
▁العزیز	-11.845
▁ایکسپو	-11.845
▁جانکاری	-11.845
▁NE	-11.845
▁جھگڑے	-11.845
▁ثمر	-11.845
▁pattah	-11.8451
▁کیوایم	-11.8451
▁betiyan	-11.8451
▁khilari	-11.8451
▁sahal	-11.8451
▁quba	-11.8451
▁طنز	-11.8451
▁اگلا	-11.8451
▁matches	-11.8451
▁usmaniya	-11.8451
▁1998	-11.8452
▁maarka	-11.8452
▁کشیدہ	-11.8452
▁شیڈنگ	-11.8452
▁اولمپکس	-11.8453
▁More	-11.8453
▁dhoni	-11.8455
▁adawat	-11.8455
▁itaat	-11.8455
▁noke	-11.8456
▁act	-11.8456
▁Mila	-11.8456
▁Laal	-11.8457
▁سنچریاں	-11.8458
▁کیوبا	-11.8458
▁ربانی	-11.8458
▁دعائے	-11.8459
▁bhali	-11.8459
▁jaganay	-11.8459
▁ووٹرز	-11.846
▁توقعات	-11.846
▁zeli	-11.8461
▁فارسی	-11.8461
▁based	-11.8461
▁Howa	-11.8462
▁شرٹس	-11.8462
▁ارض	-11.8463
▁danda	-11.8463
َعَ	-11.8463
▁گردانہ	-11.8464
▁سرکٹ	-11.8464
▁زیڈ	-11.8465
▁زخموں	-11.8465
▁Rehman	-11.8467
روزہ	-11.8467
▁daitay	-11.8469
▁حقدار	-11.847
▁motay	-11.8471
▁lagatay	-11.8472
▁فروشی	-11.8472
▁بانٹ	-11.8472
▁ڈالتے	-11.8474
▁دلانے	-11.8474
▁مانگنے	-11.8474
▁کرینگے۔	-11.8477
▁بوٹی	-11.848
▁usoolon	-11.8482
▁bahaduri	-11.8483
▁ناموس	-11.8483
▁paati	-11.8484
▁پوچھے	-11.8486
▁گرڈ	-11.8486
▁ایکسپورٹ	-11.8489
▁رولز	-11.8489
▁چیمپئنز	-11.8492
EC	-11.8497
▁dainy	-11.8498
▁satar	-11.8503
▁اُسے	-11.8509
▁رکاوٹوں	-11.8515
▁soor	-11.8516
یونٹ	-11.8529
900	-11.8548
▁زائ	-11.8549
▁pale	-11.8551
▁نیلم	-11.8556
▁نکات	-11.856
▁Han	-11.857
پیش	-11.857
ملین	-11.8573
▁rehnay	-11.8586
▁bakhsha	-11.8601
▁mama	-11.8603
the	-11.8607
▁کک	-11.8615
▁سنہا	-11.8653
▁کہی۔	-11.8676
MP	-11.8683
▁فائٹر	-11.8727
ration	-11.8792
▁کردیاگیا	-11.8796
ہمارے	-11.8812
▁ٹام	-11.8812
▁لون	-11.8825
▁سرپرست	-11.8837
▁ہولڈر	-11.8853
▁lateef	-11.8855
▁zaban	-11.8857
▁ضم	-11.8859
▁talib	-11.886
▁publish	-11.8864
▁APNI	-11.8864
▁Armghan	-11.8864
▁Juwairia	-11.8864
▁Nazeer	-11.8864
▁Paizirai	-11.8864
▁Sarfraz	-11.8864
▁Shabir	-11.8864
▁Subha	-11.8864
▁UMER	-11.8864
▁Yaqoob	-11.8864
▁amreeki	-11.8864
▁anokha	-11.8864
▁becharay	-11.8864
▁boorhi	-11.8864
▁burhenapa	-11.8864
▁chhorna	-11.8864
▁consolor	-11.8864
▁dehleez	-11.8864
▁faramosh	-11.8864
▁farozan	-11.8864
▁field	-11.8864
▁ghaddari	-11.8864
▁ghuroob	-11.8864
▁gorezan	-11.8864
▁gurbat	-11.8864
▁imkanaat	-11.8864
▁madrasay	-11.8864
▁maqsood	-11.8864
▁mashkook	-11.8864
▁mulazmat	-11.8864
▁mureed	-11.8864
▁musharaf	-11.8864
▁mutharrak	-11.8864
▁mutmaen	-11.8864
▁muzammil	-11.8864
▁nabuwat	-11.8864
▁pairwi	-11.8864
▁public	-11.8864
▁qabrustan	-11.8864
▁qehar	-11.8864
▁qitaar	-11.8864
▁raghbat	-11.8864
▁riwayati	-11.8864
▁samgha	-11.8864
▁shehzadi	-11.8864
▁srayiki	-11.8864
▁taghaful	-11.8864
▁tahreeron	-11.8864
▁tasbeeh	-11.8864
▁yahudion	-11.8864
▁احادیث	-11.8864
▁ازدواج	-11.8864
▁اصرار	-11.8864
▁ایتھوپیا	-11.8864
▁باقاعدگی	-11.8864
▁براؤزر	-11.8864
▁برفباری	-11.8864
▁تعصب	-11.8864
▁تلقین	-11.8864
▁سبسکرائب	-11.8864
▁قمیض	-11.8864
▁لغاری	-11.8864
▁مجموعہ	-11.8864
▁مستفید	-11.8864
▁مشتعل	-11.8864
▁منجمد	-11.8864
▁نیدرلینڈز	-11.8864
▁وروزگار	-11.8864
▁وکالت	-11.8864
▁پچھلی	-11.8864
▁ڈھانچے	-11.8864
▁ہیمپشائر	-11.8864
▁یارکشائر	-11.8864
▁یعقوب	-11.8864
▁Japan	-11.8864
▁Sadaq	-11.8864
▁fichr	-11.8864
▁khalwat	-11.8864
▁mutayyan	-11.8864
▁sarsari	-11.8864
▁انشورنس	-11.8864
▁رقوم	-11.8864
▁فیکلٹی	-11.8864
▁وبیرون	-11.8864
▁bandagi	-11.8864
▁bathain	-11.8864
▁hazem	-11.8864
▁nihaan	-11.8864
▁paarsai	-11.8864
▁phaar	-11.8864
▁royain	-11.8864
▁سوراخ	-11.8864
▁aafiat	-11.8864
▁german	-11.8864
▁nanhay	-11.8864
▁بریکینگ	-11.8864
▁nisf	-11.8864
▁جاچکا	-11.8864
▁راہنما	-11.8864
▁daimi	-11.8864
▁patli	-11.8864
▁sarkon	-11.8864
▁shirt	-11.8864
▁برازیل	-11.8864
▁boond	-11.8864
▁karorron	-11.8864
▁lakri	-11.8864
▁domain	-11.8864
▁hatmi	-11.8864
▁کولمبو	-11.8864
▁begana	-11.8864
▁شیکھر	-11.8864
▁gardon	-11.8864
▁ڈائری	-11.8864
▁abdul	-11.8864
▁about	-11.8864
▁مزاج	-11.8864
▁مصدق	-11.8864
▁کوایپ	-11.8864
▁farosh	-11.8865
▁اسباب	-11.8865
▁help	-11.8865
▁خواہشمند	-11.8865
▁admin	-11.8865
▁پرہیز	-11.8865
▁oui	-11.8865
▁Hanif	-11.8865
▁فہمی	-11.8866
▁Apple	-11.8866
▁serra	-11.8866
▁لکیر	-11.8866
▁سلیکٹر	-11.8866
▁پچیس	-11.8867
▁lohay	-11.8867
▁تنصیبات	-11.8867
اردوپر	-11.8867
▁اداکاراؤں	-11.8867
▁ملبوسات	-11.8867
▁مصروفیات	-11.8867
▁باخبر	-11.8867
▁MG	-11.8867
▁qabeela	-11.8868
▁abaad	-11.8868
▁آمدید	-11.8868
▁Hum	-11.8868
▁dhaal	-11.8868
▁direct	-11.8869
▁asmin	-11.8869
▁ریٹیل	-11.8869
▁rava	-11.887
▁ijtimai	-11.887
▁دانشور	-11.887
▁jalta	-11.887
▁کنندہ	-11.887
▁1965	-11.887
▁boorhay	-11.8871
▁khham	-11.8871
▁تعطیلات	-11.8871
▁fav	-11.8872
▁Aik	-11.8872
▁جانیئے	-11.8872
▁pack	-11.8872
▁مدعیت	-11.8872
▁نشین	-11.8873
▁اندھیر	-11.8873
▁نجف	-11.8874
▁راجیو	-11.8874
▁Agar	-11.8874
▁urane	-11.8874
▁dimaghi	-11.8875
▁maizbani	-11.8877
▁پنڈی	-11.8877
▁بہانے	-11.8878
▁لڑکا	-11.8878
▁istifada	-11.8878
▁سجل	-11.8879
▁kashif	-11.888
▁ajal	-11.888
▁مزہ	-11.8881
▁khoobiyan	-11.8882
▁مہربانی	-11.8884
▁asas	-11.8886
▁ہوجانے	-11.8887
▁talkhi	-11.8887
▁ماننے	-11.889
▁aiye	-11.889
بیورورپورٹ	-11.8894
▁gandu	-11.8894
▁daano	-11.8896
▁rahein	-11.8897
▁موسی	-11.8898
▁shakha	-11.8899
▁chahata	-11.8899
▁ٹیلر	-11.89
▁ناول	-11.89
▁حسنین	-11.8901
▁puray	-11.8901
▁باریک	-11.8903
▁madar	-11.8904
▁lambai	-11.8907
▁کھیلتا	-11.8907
▁poochti	-11.8908
▁mug	-11.8908
▁zee	-11.8909
▁ٹرن	-11.8913
▁سچن	-11.8918
▁deal	-11.892
▁milaad	-11.8922
۔۔۔۔۔	-11.8923
▁badalta	-11.8923
▁اٹھائی	-11.8925
▁rahaish	-11.893
▁دلائی	-11.8931
▁main	-11.8945
▁khole	-11.8946
▁فیئر	-11.8958
▁130	-11.8973
▁خریدے	-11.8986
▁Rahi	-11.9013
ster	-11.9033
امام	-11.9066
600	-11.9067
▁مکس	-11.9075
▁سائن	-11.908
▁rakh	-11.9097
▁mom	-11.9103
▁ہاٹ	-11.9107
▁لکھیں	-11.912
▁paani	-11.9136
▁mudda	-11.9142
▁pees	-11.9144
▁تھامس	-11.915
▁پہنا	-11.9157
▁141	-11.9163
▁ڈھال	-11.918
وائس	-11.9186
▁rail	-11.9189
▁دیوان	-11.9212
▁laal	-11.9215
▁لونگ	-11.9227
مونٹ	-11.9236
حافظ	-11.9241
افغان	-11.9245
گورنر	-11.9245
مریم	-11.9254
▁زخم	-11.9254
▁فروش	-11.9256
سکتی	-11.9256
مقامی	-11.9264
ریاست	-11.9265
▁شاپ	-11.927
▁برہم	-11.9285
▁128	-11.9287
▁فساد	-11.9296
areeb	-11.9297
▁لمبا	-11.9297
▁AANE	-11.9299
▁Benazir	-11.9299
▁Bohat	-11.9299
▁Kehtay	-11.9299
▁Micorsoft	-11.9299
▁Tanveer	-11.9299
▁aflaaq	-11.9299
▁almuqaddas	-11.9299
▁andheron	-11.9299
▁bahawalpoor	-11.9299
▁baichnay	-11.9299
▁bunyadon	-11.9299
▁burrows	-11.9299
▁business	-11.9299
▁challenge	-11.9299
▁gariyaan	-11.9299
▁graph	-11.9299
▁guraiz	-11.9299
▁iqtisadi	-11.9299
▁istilaah	-11.9299
▁kashmakash	-11.9299
▁manshoor	-11.9299
▁msajd	-11.9299
▁munazzam	-11.9299
▁muntazmeen	-11.9299
▁murghi	-11.9299
▁musarrat	-11.9299
▁nigehain	-11.9299
▁samndron	-11.9299
▁script	-11.9299
▁soonahre	-11.9299
▁tabadlah	-11.9299
▁tafreeh	-11.9299
▁takalouf	-11.9299
▁takhayyul	-11.9299
▁tehseel	-11.9299
▁trophy	-11.9299
▁unicode	-11.9299
▁urdan	-11.9299
▁اعتکاف	-11.9299
▁انتہاپسند	-11.9299
▁باجوڑ	-11.9299
▁بالترتیب	-11.9299
▁برمنگھم	-11.9299
▁بیلسٹک	-11.9299
▁تعطل	-11.9299
▁تھکاوٹ	-11.9299
▁جارحانہ	-11.9299
▁حذف	-11.9299
▁خیرمقدم	-11.9299
▁ریگولیٹری	-11.9299
▁ستائش	-11.9299
▁ستھرائی	-11.9299
▁صاحبزادہ	-11.9299
▁فائدے	-11.9299
▁فراموش	-11.9299
▁فقدان	-11.9299
▁وحشیانہ	-11.9299
▁وظیفہ	-11.9299
▁وقاص	-11.9299
▁ٹھکانوں	-11.9299
▁پیغمبر	-11.9299
▁کبھار	-11.9299
▁گریجویشن	-11.9299
▁Shiah	-11.9299
▁bulana	-11.9299
▁gumnaam	-11.9299
▁hmko	-11.9299
▁khoraak	-11.9299
▁nwaye	-11.9299
▁piinaa	-11.9299
▁rukniat	-11.9299
▁حصص	-11.9299
▁دائمی	-11.9299
▁رؤف	-11.9299
▁متصل	-11.9299
▁1962	-11.9299
▁Shahbaz	-11.9299
▁dilkash	-11.9299
▁haajat	-11.9299
▁hockey	-11.9299
▁mangnay	-11.9299
▁qasid	-11.9299
▁thikana	-11.9299
▁ujala	-11.9299
▁ایجاد	-11.9299
▁لارڈز	-11.9299
▁پروفائل	-11.9299
▁چائنا	-11.9299
▁کچرا	-11.9299
▁gharane	-11.9299
▁pakdae	-11.9299
▁ramz	-11.9299
▁sikka	-11.9299
▁taqleed	-11.9299
▁visit	-11.9299
▁روبرو	-11.9299
▁مکروہ	-11.9299
▁aseer	-11.9299
▁jayiye	-11.9299
▁nashtay	-11.9299
▁السیسی	-11.9299
▁ایڈورڈ	-11.9299
▁bigra	-11.9299
▁euro	-11.9299
▁رابرٹ	-11.9299
▁سویلین	-11.9299
▁وفود	-11.9299
▁bigri	-11.9299
▁khalid	-11.9299
▁جاچکی	-11.9299
▁nangay	-11.9299
▁سنسنی	-11.9299
▁kardete	-11.9299
▁plan	-11.9299
▁sanaf	-11.9299
▁پاسداری	-11.9299
▁nuksaan	-11.9299
▁suron	-11.9299
▁وراٹ	-11.9299
▁gawara	-11.9299
▁senior	-11.9299
▁حویلی	-11.9299
▁یتیم	-11.9299
▁عبدالسلام	-11.9299
▁uga	-11.9299
▁khitta	-11.9299
▁mulakaat	-11.9299
▁ہیلپ	-11.9299
▁raseed	-11.93
▁baarisho	-11.93
▁بیرل	-11.93
▁کاؤنٹر	-11.93
▁اجرت	-11.93
▁پینٹنگ	-11.93
▁Adoor	-11.93
Martin	-11.93
▁مکتب	-11.93
▁ویرینٹ	-11.93
▁پہلوؤں	-11.93
▁batting	-11.93
▁koocha	-11.9301
▁khhaal	-11.9301
▁parney	-11.9301
▁thaanay	-11.9301
▁noble	-11.9301
▁اٹیک	-11.9301
الوجی	-11.9301
▁الیاس	-11.9301
▁کھانوں	-11.9301
▁duty	-11.9301
▁kharaaj	-11.9301
▁wallah	-11.9302
▁کیفیت	-11.9302
▁bholi	-11.9302
▁محافظ	-11.9303
▁میڈیم	-11.9303
▁peshani	-11.9303
▁ulmaye	-11.9303
▁khansi	-11.9303
▁adil	-11.9303
▁Last	-11.9303
▁دعاؤں	-11.9303
▁raastoon	-11.9304
▁kurtay	-11.9304
▁کنکشن	-11.9304
▁ghaas	-11.9304
▁فوکس	-11.9305
▁nuk	-11.9305
▁گھٹنے	-11.9305
▁تاریک	-11.9305
▁مندوب	-11.9305
▁مشرا	-11.9305
▁dhoondtay	-11.9306
▁کھرب	-11.9306
▁manndi	-11.9306
▁بنگلورو	-11.9307
▁Yad	-11.9307
▁کچی	-11.9309
▁لفٹ	-11.9309
▁آبائی	-11.9309
▁water	-11.9309
تعال	-11.9309
▁qabaili	-11.931
▁2024	-11.931
▁1970	-11.931
▁asia	-11.931
▁II	-11.931
▁جاسکتے	-11.931
▁papa	-11.9311
▁منگوا	-11.9311
▁سچائی	-11.9312
▁Shaid	-11.9312
▁جائیگی۔	-11.9312
▁hawaas	-11.9313
▁Chal	-11.9313
▁yahni	-11.9314
▁گزینوں	-11.9314
▁uthatay	-11.9315
▁khabron	-11.9315
▁jasoosi	-11.9315
▁fasanay	-11.9315
▁jamhooria	-11.9316
▁سمٹ	-11.9316
▁گارڈز	-11.9316
▁seeng	-11.9316
▁laago	-11.9316
▁مہمند	-11.9317
▁بچایا	-11.9318
▁ruknay	-11.9318
▁gustaakhi	-11.9319
▁size	-11.932
▁laashon	-11.932
▁وقفہ	-11.932
▁makanon	-11.932
▁میسی	-11.9321
▁tareefen	-11.9321
▁baabat	-11.9323
▁فراز	-11.9325
▁پیارے	-11.9326
▁پکڑنے	-11.9326
▁shaakhon	-11.9329
▁اعزازات	-11.9331
▁muqadmay	-11.9334
▁words	-11.9334
▁مقا	-11.9334
▁batin	-11.9335
▁موضوعات	-11.9336
▁shash	-11.9337
▁hub	-11.9337
▁سٹیج	-11.9338
▁کوچنگ	-11.9338
▁سمجھنا	-11.934
▁jalal	-11.9343
▁پتے	-11.9361
۔وزیر	-11.9363
▁کاربن	-11.9373
▁175	-11.9389
▁aatta	-11.9398
uresh	-11.9401
▁ٹوک	-11.9409
▁فرائی	-11.9455
▁مانیٹر	-11.9464
▁پڑھائی	-11.9514
▁talb	-11.9522
▁talba	-11.9526
▁رند	-11.9552
▁ندا	-11.9563
▁vit	-11.9587
▁شیلڈ	-11.9626
▁ہارٹ	-11.9655
▁jano	-11.9669
▁قبائل	-11.9676
خصوصی	-11.9689
فاروق	-11.9699
وقار	-11.9699
پروفیسر	-11.97
ڈسٹرکٹ	-11.97
گھنٹے	-11.97
غلط	-11.97
سیکرٹری	-11.97
امریکا	-11.97
ترمیم	-11.97
استعمال	-11.97
شخص	-11.97
افغانستان	-11.97
طلب	-11.9702
نیشنل	-11.9714
شاہد	-11.9715
Com	-11.9717
▁کاشتکار	-11.9736
▁atom	-11.974
▁وقوع	-11.9742
▁qaum	-11.9744
▁people	-11.9744
▁shud	-11.9744
▁بنگلور	-11.9745
▁مشاہد	-11.9746
▁corrupt	-11.9753
▁7,317	-11.9754
▁Lebanon	-11.9754
▁Muslim	-11.9754
▁Nihaad	-11.9754
▁Wazeer	-11.9754
▁account	-11.9754
▁against	-11.9754
▁ahelkaar	-11.9754
▁alamgir	-11.9754
▁amaada	-11.9754
▁asghar	-11.9754
▁azbkstan	-11.9754
▁azmaish	-11.9754
▁beshumar	-11.9754
▁brfbari	-11.9754
▁bulayen	-11.9754
▁chattaan	-11.9754
▁colour	-11.9754
▁computing	-11.9754
▁dareechay	-11.9754
▁geographiya	-11.9754
▁idraak	-11.9754
▁intakhab	-11.9754
▁jasaktay	-11.9754
▁jevan	-11.9754
[...]
